Ġ t
Ġ a
h e
i n
r e
Ġt he
o n
e r
Ġ s
Ġ w
a t
Ġ o
e n
Ġ c
i t
i s
a n
o r
Ġ b
e s
e d
Ġ f
in g
Ġ p
o u
Ġa n
a l
Ġt o
a r
Ġ m
Ġ in
Ġo f
Ġ h
Ġ d
â Ģ
a s
i c
Ġan d
Ġt h
l e
o m
i on
l l
en t
Ġ n
Ġ l
Ġ re
s t
v e
Ġ e
l y
r o
Ġb e
Ġ g
i d
u t
a c
o t
Ġ T
Ġ I
Ġth at
Ġ on
a y
Ġ S
Ġ is
e t
i m
a m
a d
o w
s e
i g
Ġf or
âĢ Ļ
Ġ A
v er
u r
c t
l d
Ġ C
Ġ u
Ġs t
Ġ y
Ġ it
Ġ he
i r
at ion
it h
Ġw h
Ġ M
c e
t er
o l
Ġw e
i l
Ġw ith
Ġa s
Ġ B
c h
i ll
n d
Ġ P
Ġw as
er s
Ġy ou
k e
Ġ âĢ
Ġc on
Ġd e
Ġ r
he r
i f
at e
a g
Ġa t
Ġh a
Ġ W
Ġs e
Ġ H
o re
Ġp ro
u l
p p
m ent
r i
Ġa re
Ġ D
Ġ 1
u s
es t
is t
Ġc om
an d
Ġ R
o p
a in
ĠT he
Ġ 2
ig h
r om
Ġ (
or t
o d
Ġn e
Ġ F
u m
u n
Ġe x
re s
a b
âĢ Ŀ
Ġn ot
Ġ N
Ġ v
es s
Ġha ve
it y
e m
ou ld
Ġo r
t h
Ġb y
o s
an t
Ġ G
i ve
Ġf rom
Ġa l
e l
' s
o c
ar t
Ġs u
Ġ L
Ġs h
Ġth is
n t
q u
igh t
p e
u st
Ġ le
i es
Ġ E
en d
Ġc h
Ġs a
ou t
Ġa b
T he
al l
i e
ac k
re d
0 0
ĠâĢ ľ
Ġh as
al ly
Ġ J
Ġp l
Ġg o
ar d
i v
Ġh is
om e
a p
o st
g h
e ar
Ġ O
Ġt r
ou r
as t
Ġ j
a k
u d
Ġd o
Ġthe y
Ġb ut
Ġw or
r ou
Ġc an
g e
Ġw ill
Ġsa id
Ġw he
Ġ U
Ġ k
ic h
Ġa ll
o k
Ġ "
id e
Ġwh o
t e
am e
an s
t her
i al
Ġo ut
f f
Ġthe ir
on g
p l
ic e
u re
p t
on e
Ġm ore
ag e
ion s
ac t
i ke
Ġm e
Ġu p
ou s
in e
Ġa d
Ġab out
at ed
r a
b er
Ġon e
Ġwe re
Ġs o
Ġu s
e ct
im e
o g
Ġ K
i a
Ġh ad
a re
u b
c c
Ġw ould
Ġc l
Ġ2 0
Ġ im
Ġwh ich
in d
u e
a ke
e p
i z
ver y
Ġa g
Ġt e
Ġin t
Ġof f
Ġcom p
Ġcon t
Ġu n
Ġbe en
s o
Ġ en
p er
ig n
a u
ĠT h
ar y
ac e
Ġy ear
i p
e w
Ġl ike
v en
o ok
Ġin c
ay s
Ġm an
Ġp e
r y
o se
Ġre s
ab le
it e
Ġp er
as s
or d
Ġs p
i re
ĠI n
Ġo ther
m er
Ġs ome
i le
ĠS t
i b
en ce
op le
Ġ20 1
k s
ation s
Ġo ver
ic al
Ġthe re
res s
Ġd is
ul t
Ġne w
ow n
Ġal so
Ġth an
Ġa r
Ġbe c
r u
Ġthe m
an ce
ou nt
ou gh
Ġa pp
p ort
a il
in t
Ġp art
re e
Ġyou r
Ġwhe n
Ġwh at
or m
on d
Ġpe ople
f ter
Ġs c
ĠC h
a v
as e
Ġ qu
Ġan y
Ġj ust
Ġit s
Ġ Y
ac h
Ġt ime
ct ion
ĠI t
Ġk n
Ġhe r
Ġ 3
en s
l ic
Ġre c
re at
Ġm y
Ġg et
Ġ if
Ġ V
i an
. âĢĿ
Ġint o
ou nd
Ġwor k
Ġt w
ir st
ve l
Ġn o
d u
e re
ing s
or y
ic k
or s
Ġo ur
it ion
id ent
o b
Ġ -
Ġp re
o ve
Ġpl ay
an g
in k
au se
w n
am p
ad e
h ing
at es
ar k
Ġ ro
Ġp ol
Ġs he
ver s
Ġc o
, âĢĿ
Ġa fter
n e
Ġf irst
Ġc ould
Ġh ow
ĠH e
Ġ1 9
i ous
nd er
i ld
Ġa cc
Ġh im
a w
' t
on s
Ġp o
Ġon ly
Ġf e
Ġat t
ic t
he d
Ġp r
Ġtw o
r it
o v
is h
Ġcom m
âĢ ľ
f orm
Ġs pe
Ġa ct
w e
er v
Ġb l
f t
Ġbe t
Ġde c
. "
n ing
Ġb ack
Ġm ost
c es
o od
c k
ĠâĢ ĵ
Ġa m
o y
Ġd id
rou gh
if f
at er
rou nd
Ġag ain
Ġ 4
u al
d ay
is e
Ġu nder
Ġd es
Ġw ant
u ll
se l
Ġcon s
ĠâĢ Ķ
. .
Ġbec ause
Ġn ow
l ud
ent s
Ġyear s
m an
ter n
ub lic
e c
Ġne ed
Ġe ven
Ġ $
is s
Ġin v
Ġkn ow
ĠW e
Ġse e
ment s
c ed
Ġad d
, "
t ing
o ld
Ġin d
Ġse c
f ore
u ch
Ġe very
ur n
Ġ 5
Ġsu pp
Ġm ake
pe ct
ĠU n
Ġe m
Ġthe se
oc k
o ll
Ġwhe re
j ect
x t
I n
ation al
ver n
Ġb u
Ġl ook
T h
ĠA nd
os s
Ġd on
Ġe v
um p
at ing
Ġw ay
Ġbe ing
Ġre m
Ġr ight
i ly
Ġm ay
n g
ro w
le ct
ie w
Ġthe n
Ġman y
Ġ [
Ġd iff
Ġde f
as on
Ġre l
Ġc all
ĠB ut
ĠT r
i ed
l es
as ed
on t
Ġinc lud
Ġth ink
ak ing
Ġre g
) .
mer ic
Ġim p
Ġth rough
at h
it ed
ri b
Ġs y
Ġsh ould
Ġp res
Ġs ay
Ġf l
ur ing
Ġl ast
Ġth ose
ow er
Ġ very
t y
ot her
Ġm uch
it ies
if ic
Ġst ate
ĠTh is
at ive
Ġsh ow
t le
he n
Ġb r
s s
ar g
Ġwe ll
ot h
Ġp h
ĠW h
Ġc ount
al s
u nd
Ġ2 00
Ġdo es
Ġd own
Ġo wn
ar ly
Ġ end
Ġas s
Ġbe l
Ġu se
ic s
an ge
- -
t s
Ġl ong
ĠA meric
ter s
in ce
Ġbe fore
om et
g r
Ġm on
w ard
Ġgo vern
Ġst art
Ġre port
ib le
Ġ ke
u p
u es
ĠN ew
Ġf in
Ġte am
b le
Ġm ade
if e
ol og
re n
en er
) ,
Ġsu ch
c om
ou n
ers on
i x
e k
Ġs m
âĢ Ķ
l p
il ity
Ġgo ing
is m
f ul
Ġwor ld
u ally
Ġst ud
ist s
Ġgo od
Ġa c
t ain
e ll
I t
Ġsu b
Ġe ff
Ġs ur
Ġagain st
re st
it s
Ġg ame
Ġs et
or k
Ġ 6
Ġg u
Ġpo int
Ġ ent
y s
00 0
g an
ar s
l i
st em
Ġpro v
Ġst ill
rou p
Ġwh ile
ill ion
Ġhe lp
Ġle ad
Ġm in
we en
a x
an k
al k
im es
Ġs ays
Ġo b
m s
c y
Ġpro du
e f
Ġg r
Ġin ter
Ġin st
Ġst r
c ess
Ġs im
i o
sel f
Ġcon f
Ġc ol
Ġt ake
u res
ar ch
Ġs ame
Ġth ough
Ġbet ween
oll ow
Ġoff ic
e ver
Ġc r
Ġdiff ere
o ol
us s
ut ion
l and
Ġdis c
a ir
Ġo p
a h
Ġ ed
Ġh igh
re ad
Ġn um
Ġl aw
Ġs ign
w ay
Ġgovern ment
g g
ĠR e
l ed
n er
h ip
at ch
he s
am es
Ġin te
an y
Ġt er
Ġs omet
c ent
vel op
t ed
W e
Ġre f
Ġtr ans
t en
Ġin s
Ġr un
Ġs er
Ġf ound
Ġth ree
iv es
a ve
Ġm em
Ġa round
Ġhe re
at her
Ġm ed
Ġre al
Ġus ed
ou se
Ġ1 0
v ed
Ġex p
a z
ĠA r
ce pt
o ot
Ġsy stem
ĠY ou
c i
Ġre ally
Ġm od
v ing
c on
c er
Ġg roup
Ġsupp ort
Ġ 7
Ġc our
et s
al e
p r
in s
Ġre t
Ġh and
Ġp ublic
Ġspe c
ĠL e
p h
y ing
Ġg reat
Ġc ar
en se
Ġex t
. [
t on
ire ct
Ġc ur
Ġf am
ĠC om
al th
Ġha pp
Ġf act
Ġex per
ĠThe y
ĠTr ump
Ġf r
Ġw om
ĠI s
Ġc ap
Ġb oth
Ġd ay
Ġf ind
ĠA l
ul ar
Ġre ad
in es
o h
ic es
Ġd et
Ġl it
Ġs l
Ġre p
ut h
Ġd uring
ĠS h
e red
ĠA s
Ġ 0
Ġs erv
Ġmon th
m in
t he
is ion
Ġde velop
Ġb ig
Ġ 8
Ġp erson
ak es
Ġf ollow
Ġc re
ĠC l
Ġis s
e x
Ġto ld
Ġs ince
a red
m ed
ic ally
Ġwe ek
ag es
i vers
Ġw ar
Ġf ew
ort h
ord ing
Ġc ent
Ġle g
a j
g et
Ġpol it
v es
as h
Ġex pl
Ġl ot
r ic
ĠS e
Ġbel ie
Ġg ener
Ġto o
Ġ 9
d er
at a
re nt
Ġo pp
W h
Ġre qu
Ġcont in
i et
b ers
an c
Ġf il
ent ion
n ess
Ġc le
Ġres p
Ġp ut
iz ed
ĠI f
Ġan other
2 0
ch ool
Ġin f
Ġsomet hing
ĠD e
Ġdiffere nt
Ġc or
Ġl oc
ut e
Ġinv est
Ġs oc
Ġp ower
Ġc he
u c
Ġ '
Ġp ass
Ġcomm un
Ġl ife
ĠF r
Ġpl an
od y
Ġre le
i ence
Ġhe ad
Ġth ings
n ed
Ġf ar
Ġar t
Ġp oss
Ġm et
th ing
o x
Ġc amp
ro ss
ar ge
Ġv ot
i er
Th is
v iew
Ġch ild
ant s
Ġas k
Ġ .
Ġm ight
Ġe ach
iz e
in ess
Ġde p
Ġne ver
Ġne xt
i k
ie ld
Ġsec ond
Ġm ark
Ġqu est
t t
Ġb us
Ġad v
ĠA n
Ġde m
ĠF or
Ġcom e
Ġg ot
ĠâĢ ĺ
Ġop en
Ġb est
i ent
it al
Ġall ow
ĠTh at
r at
Ġse em
Ġp ost
p le
n ce
Ġfe el
ĠP ro
ĠU S
u g
Ġp ri
gr am
Ġper cent
c l
Ġh ome
Ġd ist
Ġd irect
i red
Ġinc re
Ġcont ro
ĠR ep
s on
or n
l ess
os ed
Ġres ult
Ġh ard
Ġc are
ate ly
Ġm illion
ch n
Ġcomp le
Ġpl ace
Ġwith out
Ġin form
Ġinclud ing
Ġim port
Ġa v
con om
Ġh um
Ġ ide
Ġpro ble
Ġbu ild
Ġto p
am a
Ġnum ber
Ġcount ry
g y
one y
a im
ĠB l
re t
r al
ab ly
u ro
Ġst and
Ġg l
Ġe l
ri end
Ġf our
is hed
w ays
Ġpart ic
Ġbet ter
c o
Ġt ri
B ut
Ġrec ent
Ġinte rest
Ġm ov
Ġle t
r ation
Ġse ason
Ġl ess
Ġt urn
Ġlit tle
Ġbe h
Ġm il
e ad
Ġapp ro
r act
l ine
Ġb ro
l ing
is ed
Ġcall ed
a pp
1 0
Ġc ase
Ġd r
ĠI nd
Ġre st
Ġle ft
Ġp op
Ġan n
Ġ Z
en cy
od e
Ġm ove
in a
Ġatt ack
ĠThe re
Ġke ep
Ġf ull
er ing
Ġdid n
b e
Ġf un
Ġm ain
aj or
_ _
Ġeff ect
in al
m e
le g
Ġpre v
Ġpro gram
t o
Ġus ing
Ġt est
Ġp ay
at ure
Ġe ar
Ġv al
Ġpol ice
Ġw rit
Ġfor m
Ġe conom
Ġd ata
Ġnew s
Ġp os
Ġw in
ĠAmeric an
Ġle vel
Ġs it
Ġch ar
ain s
iv ing
u ck
Ġsm all
in ed
read y
H e
Ġs chool
Ġl ist
olog y
r ap
m it
id ed
pl oy
' re
g er
Ġe as
Ġpro cess
ir d
Ġch ange
Ġwom en
Ġcur rent
Ġre ce
Ġp rom
Ġh ist
Ġd ri
Ġ =
i ans
re en
Ġpres ident
Ġcomp any
ĠS o
us ed
Ġm at
ru ct
Ġal ready
oh n
ĠUn ited
w it
Ġt y
Ġwh y
Ġb re
Ġu nt
Ġm oney
Ġs ol
Ġal ways
Ġl ater
Ġex pect
Ġte chn
Ġbus iness
ĠH ow
Ġoffic ial
r on
Ġ Q
ĠO b
st and
ivers ity
Ġb o
Ġb ook
ĠP h
a ign
Ġth ing
Ġcl ass
Ġpro ject
as es
Ġcl aim
Ġj ob
Ġinform ation
Ġor gan
a ff
ĠS he
Ġt alk
ard s
ĠB e
Ġdes ign
Ġst ory
Ġch ang
Ġm ajor
Ġab le
Ġpro f
Ġ- -
.. .
le ction
iv en
er tain
Ġre se
Ġhe alth
Ġv is
Ġp ast
ur s
Ġf ree
ou th
he re
ĠA d
Ġo per
pt ion
Ġa way
i or
ĠC an
Ġm ust
Ġc ity
amp le
r ist
s c
ur al
Ġhapp en
uth or
Ġ1 8
Ġimport ant
ac y
ur ity
Ġk ill
Ġs k
Ġ est
u red
Ġo ld
Ġp at
ur y
end ing
Ġdoes n
iss ion
Ġle ast
Ġg row
Ġed it
Ġv ar
ain ed
Ġc ost
ĠG o
ne y
id er
id es
el s
Ġd ays
Ġte ll
Ġh op
Ġst re
Ġcamp aign
s ide
Ġ1 2
Ġm en
Ġc ame
Ġa ff
Ġcon st
res ident
Ġen ough
Ġv iew
cc ess
Ġk ind
ĠM ar
o ad
ĠS p
er n
Ġm aking
Ġl arge
Ġrec ord
5 0
us h
Ġf riend
Ġm ar
Ġfam ily
âĢ ¦
le y
Ġe lect
er al
Ġpol ic
Ġt ax
is ing
b y
pp ed
al ity
at or
if ied
A s
iv ed
are nt
r or
Ġunt il
ion al
Ġpolit ical
Ġv ide
Ġde al
ri es
al f
au gh
Ġ ve
Ġwork ing
u ed
ĠRep ublic
Ġto ok
Ġde b
b s
I f
is ter
Ġl ine
ĠJ ohn
ain ing
Ġa ir
-- --
Ġ es
an e
Ġin tern
Ġf ore
i ol
oc rat
Ġbec ome
Ġact ually
ap s
on y
Ġme an
w ork
e e
Ġf und
ĠS c
w are
1 9
em ber
S t
ĠP l
Ġfor mer
Ġof ten
ĠE uro
ot t
an n
Ġw on
Ġg ive
Ġacc ording
Ġe ver
m ost
en g
y ear
Ġpro te
w h
ar ing
Ġg ames
is on
Ġhum an
Ġb as
Ġwor d
iz ation
Ġret urn
Ġt imes
Ġor der
ĠR uss
Ġb it
ĠD em
Ġn ame
o int
1 1
g in
Ġse ver
ĠA ll
Ġde v
ic le
ut ure
f or
it her
i qu
Ġp ar
Ġ19 9
ĠM c
Ġw r
ĠC on
ra ft
Ġs ing
Ġper form
ĠS y
id d
Ġmark et
Ġf ac
Ġchar ac
The re
ĠO r
ĠA t
ĠM ay
Ġr a
Ġdo ing
Ġapp ear
E R
c hed
Ġplay ers
Ġl a
Ġn ight
Ġle ar
ak en
ro p
at s
m ber
Ġto day
Ġe arly
Ġ1 5
Ġse en
/ /
Ġha ving
Ġ ,
Ġp ot
Ġchild ren
Ġev ent
Ġmed ia
Ġsoc ial
Ġc rit
ĠP resident
Ġwhe ther
Ġsever al
Ġcontro l
id ence
Ġme et
s h
Ġmil it
Ġp ress
Ġw ent
art ment
en e
Ġf ive
Ġyou ng
or ies
Ġpro p
ious ly
Ġsu re
Ġe qu
Ġquest ion
Ġo cc
Ġlike ly
ver t
un e
Ġmem bers
b r
and s
Ġc ertain
i um
Ġen g
Ġw ater
ĠY ork
Ġex ample
ot s
ĠC ol
Ġs ide
Ġan t
Ġar g
Ġd one
en n
Ġ vers
Ġinv ol
ĠM r
ĠSt ates
ĠEuro pe
end ed
le t
Ġal ong
Ġsh ort
Ġsu ccess
ent ial
Ġmonth s
b all
Ġh our
Ġ1 1
Ġse x
i ver
i ally
A nd
l f
em pt
Ġwith in
Ġdes c
im ate
Ġcour se
Ġf ight
ur ch
ĠS te
ub l
Ġam ong
Ġact iv
u ff
ag ue
âĢ ĵ
Ġon ce
st er
Ġf uture
Ġinvest ig
ul ation
re w
Ġposs ible
ĠOb ama
Ġch o
n ect
Ġunder stand
it ing
Ġcon cer
ĠO n
Ġ ]
on es
ort un
Ġproble m
ĠB r
Ġpri v
Ġme ans
Ġv iol
ĠC ar
Ġa uthor
it ive
ĠN o
gg est
Ġav ail
oc i
our n
m y
Ġkn own
Ġprodu ct
Ġn on
iv id
Ġthough t
Ġy et
g ress
Ġac ross
Ġloc al
al d
l er
Ġh old
ĠT e
Ġf ail
ĠW hen
ĠSt ate
in c
Ġcommun ity
Ġre ason
Ġor ig
Ġsu ggest
Ġ &
1 2
Ġm akes
ver age
n ot
p or
b ack
Ġ201 6
Ġ i
b ook
Ġask ed
ed eral
or ld
Ġreport ed
Y ou
ag ed
ens ive
Ġg iven
Ġstr ong
Ġpro b
o f
Ġm us
Ġother s
Ġbelie ve
Ġvide o
i ber
Ġb en
Ġget ting
ĠH ouse
an ces
Ġann oun
Ġl ight
ore d
o ber
ĠUn iversity
Ġ3 0
it ions
Ġ ident
ir on
Ġs ent
Ġc ut
Ġl im
Ġc a
ĠCh rist
ĠC o
iet y
3 0
ur ther
Ġs our
Ġc reat
Ġcon d
Ġ X
am s
' ve
Ġn et
as hing
Ġb at
am ent
Ġn ational
. ,
Ġcl ose
Ġstart ed
Ġsa f
Ġde ath
as ter
Ġavail able
ar m
Ġh ig
F or
Ġb ased
Ġiss ue
Ġind ust
ĠDem ocrat
ĠM in
Ġl ow
Ġfollow ing
res ent
Ġacc ount
Ġl and
u se
ĠC ent
Ġem ploy
Ġl ove
Ġ201 5
Ġ #
Ġhist ory
Ġag o
ort s
sel ves
Ġm om
Ġpart y
ab ility
Ġser ies
Ġcom es
e b
Ġtr ying
u ly
ut es
ĠA m
Ġal most
get her
u ment
Ġto gether
in ation
A T
ĠAmeric a
p ro
Ġide a
ie f
Ġacc ess
Ġf oc
her s
il ar
ĠF l
re ed
ail s
Ġcomm it
ition al
Ġis n
ĠS en
Ġcle ar
Ġ1 6
ĠO ne
Ġtr ad
th ough
r ing
ĠWh at
Ġpr act
Ġadd ed
Ġimp ro
Ġexper ience
ere nce
Ġfil m
1 5
Ġh alf
ust om
g ed
Ġh it
a f
ĠB ro
wit ter
r ict
Ġan al
Ġpro t
int on
og rap
un ch
Ġ201 4
Ġr ul
ivid ual
Ġlook ing
Ġs ix
Ġl ive
Ġany thing
Ġare a
Ġcomple te
er man
min ist
Ġm iss
ra el
ĠE x
ĠCom m
Ġf av
Ġr is
a i
n es
Ġpres ent
ot e
ru g
Ġsay ing
ra w
a id
ĠCan ad
Ġv ict
I N
ci ally
Ġb ad
ow s
u ge
Ġt aken
er t
Ġent ire
ot o
ĠP r
at ors
Ġb ill
Ġcomp et
ĠE ng
Ġm or
Ġbeh ind
i en
Ġa ut
ĠT o
' m
Ġcour t
pl ay
Ġtr y
Ġt re
ward s
Ġmilit ary
Ġ z
Ġne ar
os p
Wh at
Ġf ace
Ġm ult
Ġ1 4
Ġsec urity
Ġ er
ĠP ol
e v
p s
Ġpro per
Ġdisc uss
Ġth reat
Ġto t
Ġstud y
Ġsing le
Ġr ather
Ġind ividual
ĠA f
ĠB rit
ĠW ar
Ġ Â
Ġqu ick
ĠD on
Ġm ind
ĠS ec
le ment
al es
am ed
at ic
A n
ĠN orth
ap er
Ġp ubl
Ġpolic y
Ġm ess
r is
p ar
Ġbl ack
Ġwant ed
Ġf all
ir c
* *
o ff
Ġf ood
Ġs um
Ġsome one
ll ing
id s
O n
Ġ |
Ġ /
Ġc ult
Ġspec ial
Ġcom b
Ġke y
ĠM an
Ġplay er
Ġre du
ĠG r
Ġbr ing
Ġ1 3
Ġcomp an
Ġ1 7
p ly
ro te
ĠD ep
Ġatt empt
ĠN ational
Ġt aking
ĠB ar
W hen
y n
O N
if y
ol ution
Ġ :
v iron
Ġf oot
ĠC al
: //
Ġel se
Ġpre t
Ġb ody
Ġsp ace
el t
o ver
d d
Ġprob ably
1 6
ic ult
. )
Ġfr ont
Ġc ou
Ġnot hing
Ġs w
ashing ton
ĠI m
Ġcon nect
c hes
ĠW orld
Ġrese arch
1 4
m ing
ĠCl inton
ĠC ity
Ġcom ing
Ġpoint s
ĠIs rael
R E
Ġhow ever
Ġdesc rib
g o
Ġj o
Ġsign ific
Ġsim ilar
re me
c ing
Ġben ef
li er
ĠA ust
Ġdec ision
Ġe ither
ac es
Ġc oun
a ult
S o
Ġm ass
m b
ĠH ar
Ġs us
Ġt arg
ull y
s y
an a
Ġfe at
Th at
Ġim m
Ġcon v
Ġex ist
ir l
Ġen c
Ġ201 3
Ġright s
Ġserv ice
ĠS u
as ing
un g
I S
Ġf ire
Ġd oc
Ġw rote
Ġf urther
Ġh ouse
ro du
w w
Ġf ig
Ġch all
Ġb an
Ġth ird
Ġprote ct
Ġw a
Ġcre ate
Ġst op
s w
Ġf ield
n ow
Ġp ick
A N
a pe
ive ly
Ġme as
Ġre pl
Ġcom pl
ĠW ith
Ġiss ues
pp ing
Ġbe gin
Ġsu per
am er
Ġst ep
ri ed
ent ly
Ġwho le
Ġrel ations
Ġseem s
Ġ )
Ġcompan ies
pe cially
Ġd ue
Ġex ec
Ġc and
Ġevery thing
Ġf ederal
Ġst ates
ĠG u
Ġe y
Ġro om
a ul
Ġtr a
Ġw atch
o on
ĠG e
Ġc ustom
Ġlead ers
1 3
u ation
ĠHow ever
p ite
ĠW ashington
ĠJ an
C h
l am
Ġse lf
Ġro le
r an
il t
Ġs ound
Ġl ab
he ad
Ġd am
iv il
Ġofficial s
Ġst ri
Ġ201 2
at t
id ay
ib ility
Ġrele ased
ĠIn st
Ġbe gan
ĠD av
l u
ĠA pp
ĠS outh
Ġo pt
ob al
Ġstud ents
Ġt reat
e al
Ġfin al
Ġcharac ter
Ġpos ition
Ġmat ter
Ã ©
end er
Ġen er
l im
Ġout side
er y
se c
ad es
Ġd ou
viron ment
Ġdevelop ment
Ġstate ment
Ġhim self
Ġ201 7
Ġab ove
l ike
Ġst at
Ġin it
Ġbre ak
Ġ1 00
Ġam ount
Ġprov ide
Ġhour s
Ġit self
Ġthem selves
Ġoff ice
Ġrep resent
Ġa ction
ĠP art
Ġd i
Ġbec ame
Ġ19 8
Ġgener al
Ġcontin ue
Ġcount ries
ĠIn tern
Ġne g
i od
Ġadd ress
Ġ2 5
Ġg un
ac ed
as k
Ġtr ue
Ġspec ific
ograp h
um b
ar ter
re g
Ġl arg
Ġsignific ant
l ish
Ġsim ply
ĠA ss
ĠR es
Ġwas n
' ll
Ġinter view
ace book
il i
Ġg round
Ġr ad
o id
og n
Ġdiff icult
Ġrun ning
ĠJ ust
Ġev idence
Ġad minist
B C
Ġc op
1 7
re am
Ġd rug
Ġvers ion
og le
Ġb ar
ĠE d
Ġag ree
idd le
e ks
Ġbuild ing
ĠCh ina
Ġneed s
Ġprof ess
ang u
Ġgroup s
r ight
Ġty p
Ġresp ons
Ġcomm on
Ġshow s
Ġevery one
Ġd om
Ġd est
Ġneed ed
Ġb all
Ġwom an
ĠG erman
Ġl at
Ġbel ow
Ġt em
l ight
ourn al
Ġmus ic
Ġex c
Ġrele ase
if t
Ġin j
Ġpret ty
ĠM ed
ĠA b
A R
rib ut
Ġinclud e
Ġsa w
Ġde ep
b ody
Ġa p
1 8
Ġplay ed
Ġqu ite
Ġindust ry
Ġch arg
Ġm ag
Ġener gy
Ġplay ing
Ġm ot
Ġ5 0
Ġcand id
Ġs ense
Ġph ys
Ġl ate
Ġal leg
Ġwh ite
ĠH is
iv al
Ġfriend s
Ġg en
Ġleg al
at ur
Ġan im
is c
b o
y le
ĠA fter
H ow
A S
w here
Ġab s
le v
Ġinst ead
Ġre d
Ġb illion
Ġl ost
Ġes pecially
Ġval ue
ĠM us
ĠW est
Ġh ost
Ġh om
os ing
or ing
ĠNew s
t ime
ag er
Ġp le
ist ic
Ġwe eks
ep end
ĠN ot
cc ording
om m
Ġfor ward
iqu e
Ġdet er
Ġe lection
Ġrecent ly
Ġj ud
Ġtr ack
Ġsu ff
Ġvot e
ĠT witter
Ġob ject
ir t
l t
med i
Ġper iod
Ġchang es
Ġopp ortun
ĠWh ite
ĠO ct
Ġl o
Ġlong er
ar c
o ke
Ġp ain
Ġso on
Ġs ite
Ġ {
e ed
Ġe p
h od
ri pt
ac hed
Ġac cept
ĠC ong
__ __
Ġsh oot
Ġeconom ic
Ġhop e
ir m
o e
Ġmom ent
Ġdec l
le ge
Ġcons um
ĠW ill
Ġp ie
Ġt it
Ġche ck
op h
Ġpot ential
i j
Ġbl ock
ĠM arch
o le
Ġwr ong
du ct
n ers
ĠSe pt
ĠDep artment
Ġhig her
on se
Ġc red
Ġon line
Ġfoc us
Ġ2 4
Ġcons ider
ke y
Ġed uc
anc ial
ĠM y
n s
id ing
Ġc irc
Ġwor ks
Ġrel ig
Ġsh are
Ġp arent
c ial
Ġhe ld
2 5
Ġp red
ĠD r
Ġw alk
Ġwe bs
Ġl ed
ul arly
= =
Ġre ve
le ar
Ġst ay
ĠThe se
ove red
Ġst ru
al t
ĠRepublic an
Ġris k
Ġword s
ĠA ug
Ġre v
Ġso ld
Ġre view
ic ro
Ġcont ract
Ġresult s
Ġserv ices
Ġlaw s
The y
Ġc ode
c il
ĠM ich
Ġw ind
Ġfun ction
Ġa ud
Ġc e
ĠSy ri
p ut
a ut
Ġtot al
f ect
Ġart icle
Ġa ge
Ġapp lic
Ġmin utes
ur d
ĠM e
Ġperson al
il ities
Ġany one
u ary
i ents
it ution
as ons
ĠJ une
A d
ate g
Ġpr im
ang er
Ġtarg et
Ġd en
f er
Ġear lier
u le
Ġfav or
Ġexp ress
h aps
Ġde ad
Ġan sw
Ġup d
Ġpop ular
c he
Ġcomp ut
Ġv ol
pr il
Ġne cess
h am
Ġh y
Ġr ate
E S
ag ing
Ġtechn ology
ap an
te e
Ġres pect
ĠP e
v al
Ġen vironment
Ġ201 1
P h
Ġrece ived
Ġexpect ed
ud e
end s
Ġgo al
ĠP ar
Ġb ase
Ġcre ated
Ġsur pr
Ġant i
ĠS m
ĠJ uly
et er
Ġproble ms
u el
Ġw ays
Ġp ort
ip le
act ion
Ġpriv ate
ĠD o
Ġsc ient
Ġincre ase
r ay
re et
Ġannoun ced
Ġcom ment
is l
Ġcan not
Ġeas y
A l
Ġsh ot
ĠCong ress
Ġquest ions
b it
Ġfor ce
ater ial
her n
Ġimp act
n a
Ġe t
ĠM ond
pl es
Ġp ack
Ġ +
ĠF acebook
Ġp ur
Ġl angu
at ives
ĠG od
ĠE n
ct or
Ġinvol ved
om b
av ing
ill s
6 0
le x
h ood
on st
ĠAust ral
Ġd iv
ues day
Ġexec ut
Ġmod el
it iz
Ġs en
Ġspe ak
Ġst aff
Ġex act
Ġc ivil
i res
Ġne arly
Ġty pe
our t
ok es
Ġorig inal
Ġc ases
Ġcont ent
Ġ19 7
Ġrelations hip
Ġter ror
ĠGo ogle
T o
Ġle ave
ĠFr iday
Ġresp onse
Ġcap t
Ġins ide
Ġ <
re m
Ġph ot
ll ed
Ġf ans
ĠA pril
ĠR ed
Ġintern ational
Ġco ll
c ast
Ġhe art
Ġa verage
Ġbro ad
Ġar rest
Ġus ers
ĠC ount
e es
Ġc al
A t
re l
Ġc ell
Ġw orth
e ch
Ġso ft
Ġ ur
Ġl iving
ĠE m
b or
ip s
Ġn ation
k y
Ġkill ed
Ġreport s
Ġ201 0
ã ģ
g ing
Ġbec om
Ġsour ce
ĠMond ay
ĠT uesday
Ġsub ject
Ġwork ed
at ural
est s
Ġest ab
Ġim medi
E N
Ġresp ond
Ġgl obal
Ġass oci
j oy
Ġcl ub
op s
ĠAmeric ans
a el
Ġob s
it es
ĠP er
ĠP al
Ġch ance
Ġo il
ĠA ct
Ġab ility
Ġt akes
ĠN e
rough t
Ġwe ap
he l
Ġpr ice
ĠJ apan
olog ical
Ġdirect or
iz ing
Ġwork ers
Ġter ms
Ġro ad
m on
Ġpubl ished
Ġde l
ĠWh ile
Ġt ou
Ġph one
r ain
Ġcol lect
Ġfin ancial
Ġm id
os ition
Ġdec ided
is es
O R
ĠRuss ia
ĠS ome
ĠW ed
Ġm other
Ġs qu
Ġdef in
Ġl ack
ove mber
Ġ4 0
Ġg irl
Ġst ore
Ġg ave
Ġbu y
Ġinf lu
ĠCal if
Ġl og
Ġhappen ed
in o
Ġrequ ire
ĠN ow
Ġe mer
Ġf em
" .
Ġcap ital
cl us
Ġfore ign
Ġcurrent ly
ĠO ff
b ased
ĠS an
Ġgo es
ĠB y
ov ed
ĠGe or
vert ise
Ġsit uation
Ġind ic
Ġoff er
Ġwho se
Ġ @
Ġt al
Ġm aterial
Ġl ives
un t
Ġaff ect
ro wn
ough t
Ġpl ans
nes day
Ġar ri
Ġmem ber
Ġp ict
urs day
ĠF eb
Ġpartic ip
ru ction
Ġrec ogn
Ġturn ed
Ġmet hod
Ġev ents
ĠJan uary
ĠH ill
Ġnet work
O ne
ct ions
Ġteam s
ĠS und
Ġb ank
Ġmeet ing
4 0
Ġn orm
Ġint rodu
Ġsim ple
f ully
ĠIs lam
Ġ ill
ĠA g
Ġh uge
ĠSept ember
ou d
Ġreg ard
Ġare as
Ġc y
ord er
ĠC or
es e
ĠT V
Ġcou ple
Ġappro ach
Ġcare er
a ur
ĠAf ric
ĠG l
b l
tt p
" ,
l oad
Ġde li
Ġr ace
Ġperform ance
Ġp age
et y
ap t
ĠN ovember
Ġto ol
ĠDav id
Ġf elt
Ġquick ly
Ġm is
Ġnum bers
o or
Ġem ail
ĠE l
Ġ2 1
a ily
Ġor d
ist an
Ġadminist ration
Ġh on
ĠWed nesday
Ġvict im
ĠP aul
Ġv ia
Ġimpro ve
Ġeng ine
ch ie
---- ----
Ġf re
Ġp ull
ĠA ng
Ġr ound
Ġbu ilt
Ġ2 2
Ġp ers
ĠEurope an
l in
Ġd ig
en ed
ĠTh ursday
Ġf ather
orn ia
Ġl oss
av y
Ġth ous
Â Ń
ruct ure
Ġprodu ction
Ġb oy
um e
Ġhe ard
d own
S h
Ġeconom y
âĢĿ .
Ġen joy
ĠAug ust
Ġtr ade
ĠS ch
f ace
Ġwebs ite
im ent
Ġsec ret
Ġco ver
Ġreve al
Ġw ide
Ġbo ard
Ġm atch
ĠC ourt
A L
Ġallow ed
Ġhand s
Ġsp ent
Ġtra vel
Ġl ower
Ġre pe
at ory
Ġpo ll
Ġst e
Ġinclud ed
ce mber
ĠOct ober
Ġne igh
Ġleg isl
or ters
us es
Ġbeh av
ict ion
Ġkn ew
Ġte xt
Ġwant s
Ġto wn
ight s
ĠBrit ish
Ġse par
en ces
es tern
Ġvis it
ĠCanad a
re ct
an ks
W ith
Ġper fect
Ġget s
z e
ess ion
Ġmove ment
is hing
g round
age ment
Ġtri ed
Ġc ause
? âĢĿ
g est
Ġ }
Ġfor ces
ig ence
ĠSund ay
Ġen s
A fter
for ce
ce ed
Ġatt ention
Ġpartic ular
Ġb i
] [
en ing
Ġve h
Ġb ud
Ġf ear
Ġpop ulation
Ġvar ious
ĠU K
Ġre ach
m a
Ġlook s
Ġ2 3
ĠCalif ornia
Ġb rought
Ġv o
ĠK ore
Ġl ink
ib ly
) ;
ur ning
ar ily
ĠI S
2 00
Ġprev ious
E D
Ġm ention
ĠRuss ian
Ġmor ning
ĠQ u
c le
ide red
' d
Ġf air
Ġgrow th
ak er
ĠS w
und red
9 9
se qu
y ond
Ġpro gress
Ġfe ll
ra z
all ed
Ġs ong
i am
ĠC ont
A C
Ġtr aining
h old
u k
Ġs ize
f ield
ĠBl ack
c ies
ĠDe cember
R e
ident s
led ge
Ġcont act
ĠH er
Ġdem and
Wh ile
Ġim age
Ġh or
Ġr ac
Ġh ot
ific ation
O S
Ġlead er
ec ause
Ġrul es
Ġl iber
Ġpre p
Ġse arch
Ġ ess
ĠP ost
s et
Ġc itiz
Ġup on
Ġstru gg
ĠSt reet
Ġlat est
c ome
Ġind epend
U S
u ments
in ks
ar th
Ġfeat ures
Ġco ach
ond on
ĠP ark
i ant
g es
Ġf ast
T r
o o
Ġtalk ing
ĠJ ew
Ġadd ition
d e
Ġst ar
Ġw ond
ĠSen ate
I T
ĠP at
Ġspe ed
Ġex am
Ġcons idered
ra q
ic les
ar ies
Ġre b
om p
b ed
Ġlevel s
et h
ĠT imes
ĠCount y
Ġsl ow
Ġinvestig ation
il le
Ġcon duct
ap h
ĠPart y
2 2
ĠK ing
Ġmed ical
Ġm ach
im ately
v ent
Ġa chie
Ġlangu age
atur day
Ġc ard
Ġs n
un k
op e
Ġs ort
Ġcrit ic
ĠT ex
ĠCent er
Ġp en
Ġu nd
w o
ĠInd ia
Ġp aper
ys is
I C
Ġ200 8
p ir
Ġcons erv
Ġparent s
im in
Ġsex ual
Ġsystem s
Ġpri or
h a
u it
as c
Ġdo ll
Ġwrit ten
u f
Ġsaf e
Ġb ox
Ġsp okes
ig r
Ġsee k
Ġs ens
he t
Ġdoc ument
id ge
e ared
Ġincre asing
Ġhe ar
an i
at form
Ġd raw
Ġse ven
Ġs on
ĠMus lim
Ġeff ort
ru ary
Ġjob s
sy ch
ĠI ran
Ġext reme
Ġprev ent
Ġlear n
in ing
Ġser ious
Ġreg ul
r ast
Ġin n
Ġr ange
Ġ ...
ro om
Ġviol ence
Ġe ight
ĠM ark
8 0
our ces
ĠI raq
it ch
O P
Ġsur ve
Ġcomplete ly
Ġcon c
Ġ200 9
Ġmess age
ic o
ĠK e
t r
Ġ â
S he
Ġob v
Ġinterest ing
reed om
Ġsc reen
ab or
Ġopportun ity
e ff
Ġcl imate
2 4
Ġmajor ity
an ced
Ġpartic ularly
Ġdou b
Ġj ournal
ĠR om
Ġdes pite
Ġclaim s
ĠCh ar
Ġansw er
Ġsoc iety
m p
ĠL ondon
Ġdef ense
Ġcar ry
ent ially
am ing
Ġgu y
Ġext ra
ens ion
ĠDon ald
is ions
Ġattack s
Ġrequ ired
er ve
ren ch
ill ed
Ġbig gest
vertise ment
ĠE ast
Ġexact ly
i ers
Ġp aid
ĠM ore
ib r
Ġexper ien
Ġare n
ly ing
uc lear
ines e
Ġmod ern
Ġrem ain
Ġqu arter
Ġoffic ers
Ġh undred
Ġc ross
Ġex cept
ĠN et
ut ions
ar i
Ġt able
Ġpract ice
Ġn atural
in ally
Ġm iddle
er c
Ġ2 7
Ġcertain ly
Ġd ro
os es
ĠS aturday
Ġst ories
et t
Ġhist or
Ġg as
Ġproduct s
Ġsur v
Ġlook ed
Ġsomet imes
n ces
Ġst uff
Ġr out
Ġsc ience
Ġfin ally
Ġus er
A M
Ġsum mer
Ġmov ie
Ġbl ood
osp ital
av es
Ġcommun ic
Ġa w
ous ly
Ġl ay
Ġchang ed
Ġon es
ad d
Ġlead ing
Ġdescrib ed
ĠS and
Ġim ag
Ġter m
ĠFeb ruary
f l
Ġpr ison
Ġcon vers
n y
Ġdet ails
ic ks
Ġstart ing
ĠS pe
Ġqu ality
Ġocc ur
Ġp an
h ib
Ġshow ed
Ġn amed
Ġg iving
Ġu lt
Ġrem ains
ĠMc C
u ing
Ġreg ion
pp er
Ġprov ided
Ġcost s
ak ers
ĠS oc
ar r
Ġdam age
Ġm ob
Ġd anger
Ġf it
ĠT H
ĠT ur
Ġch ief
augh t
Ġpo or
Ġp ath
ĠM or
id a
Ġeduc ation
Ġmult iple
Ġinte ll
Ġcontin ued
en ge
ĠI nt
Ġgrow ing
N o
Ġdem onst
te xt
ĠC he
Ġ *
Ġpart s
y l
Ġ2 6
Ġwrit ing
Ġcom ments
Ġ2 8
Ġm ent
Ġmain tain
Ġass ist
Ġthink ing
ĠD es
in ary
ĠRepublic ans
ĠE ven
Ġpur p
Ġrequ est
Ġwr ite
Ġf ix
Ġit em
Ġp urch
ab les
Ġd ied
ĠDemocrat ic
ĠC oun
F L
co in
ag o
Ġread y
Ġwould n
Ġimp lement
2 3
Ġincre ased
Ġcult ure
f ort
Ġeff orts
Ġvot ers
p re
u x
Ġc amer
Ġm ill
al y
.. ..
op er
Ġread ing
mit ted
im inal
Ġf ile
Ġus ually
Ġcall s
Ġsp ot
Ġeffect s
I m
ĠG ener
z z
Ġper haps
b an
Ġal one
ar ian
il es
ĠF irst
Ġal though
Ġto wards
ĠLe ague
Ġcons ist
ĠB ill
ĠTex as
Ġse lect
Ġgu ys
Ġstand ard
ĠM on
ĠMich ael
Ġsub st
Ġce le
Ġbe yond
Ġdirect ly
Ġpl atform
ĠCh inese
Ġ( @
Ġh ous
us ing
it ute
Ġspe ech
Ġreal ity
ic ated
Ġk ids
ĠJ ames
Ġav oid
Ġthrough out
Ġfoot ball
Ġstud ent
ar a
Ġcould n
row d
B I
Ġun f
f ord
Ġimmedi ately
ou l
Ġro b
Ġinclud es
Ġc at
Ġcon cept
Ġcent er
Ġcho ice
Ġsc ene
Ġcomple x
an ch
Ġadd itional
s p
Ġchall eng
ĠC ons
Ġw ife
Ġcl os
ur t
Ġt ro
Ġrec omm
Ġrese arc
Ġep is
he st
it or
A ll
Ġ ver
ĠMin ister
Ġs le
Ġcor por
ĠâĢ ¦
Ġdesign ed
ĠS er
ur g
ag on
Ġrem ember
Ġsoft ware
Ġsaf ety
ĠInd ian
w ise
Ġg one
Ġ il
ast ic
port s
Ġc ast
Ġse ll
Ġto ward
Ġag ency
Ġt en
Ġoffic er
ac hes
Ġfig ure
Ġpie ce
Ġbr ain
om en
Ġbat tle
ĠJ ack
m en
Ġcoun ter
Ġdeb ate
air s
ress ion
st on
Ġthous ands
ad em
Ġs we
ru pt
Ġop in
Ġa head
ic ient
N ow
im um
Ġrel ative
ir th
Ġlet ter
Ġrece ive
Ġpress ure
Ġ Ð
Ġbl og
o es
il ies
amp ions
Ġ >
Ġs il
Ġmov ed
Ġla unch
Ġappear s
Ġo ption
ĠPl ay
Ġpass ed
Ġ ut
Ġpre c
Ġst age
ro y
Ġ6 0
ĠB o
Ġcle an
ĠS erv
ol ute
ĠI I
ate ver
ber g
O T
Ġproper ty
2 7
Ġhelp ed
Ġdri ve
ĠApp le
j ust
Ġalleg ed
ĠG reen
Ġtw e
n ew
Ġdis app
Ġt our
Ġmean ing
Ġro ck
Ġdo g
am b
Ġ x
Ġcr is
it ation
ĠAss oci
Ġsus pect
Ġd ate
ĠR ich
augh ter
Ġmov ing
Ġsc ore
ĠDemocrat s
Ġorgan ization
Ġs at
Ġcond itions
Ġtou ch
Ġd ark
Ġcomm and
ĠThe n
Ġ ign
? "
Ġre asons
Ġbud get
Ġp ark
m ore
Ġn uclear
Ġmy self
Ġn om
Ġde g
Ġhapp y
Ġdev ice
Ġdiffere nce
ri ef
ĠS im
Ġmay be
ch an
Ġbegin ning
A D
Ġcop y
Ġn ature
Ġfail ed
w ood
Ġf an
Ġcharac ters
y an
Ġcomput er
Ġenc our
Ġa im
ĠM art
Ġtit le
Ġw all
Ġcomp ared
Ġle ague
ock ed
ĠSu per
iv ity
Ġest im
ĠV al
ĠSt ar
Ġcol lege
Ġey es
Ġsh own
ĠEng lish
Ġcent ury
Ġpower ful
ĠD ay
le ase
our ce
Ġb al
ain t
Ġlim ited
Ġy es
Ġb and
Ġcont ribut
Ġpos itive
Ġfor ced
Ġsc he
Ġnecess ary
Ġref er
Ġcandid ate
Ġst ra
Ġdis p
3 5
ci ent
Ġbook s
Ġtr ust
A P
ĠF rench
Ġlarg est
2 6
Ġar ch
ent y
Ġs al
ĠH ere
Ġconf erence
ĠR ober
a ud
Ġnot e
Ġanal ysis
uf act
Ġsp ending
Ġpresident ial
4 5
ĠO f
Ġcitiz ens
or ks
Ġschool s
ig ration
ĠSyri a
Ġth row
B e
ven ue
ĠB en
Ġa ware
Ġme ant
Ġexecut ive
Ġevent ually
M y
Ġphys ical
Ġfollow ed
Ġfe ature
Ġtreat ment
Ġc rowd
ĠT or
ĠW ind
Ġf irm
Ġstre ng
Ġconf ir
Ġm ix
Ġb ott
er o
or ney
Ġ2 9
a res
ĠD is
Ġgr ad
Ġrelig ious
Ġeas ily
Ġaut om
Ġes c
Ġp us
b and
bo ard
I s
Ġco ol
et ro
Ġ19 6
Ġfam ilies
Ġil leg
ress ed
c raft
c ul
r ated
Ġact ions
Ġover all
ĠA ir
ĠM ex
Ġallow s
Ġg ives
Ġfe ed
ĠÂ £
ub e
) :
Ġsus p
Ġyour self
B y
Ġd raft
b um
k en
Ġsm art
Ġapp eared
Ġdet ail
Ġinc ome
ir ing
Ġanal y
ĠB el
Ġsign ed
N ew
en cies
Ġcent ral
Ġide as
Ġan g
ĠGo vern
Ġsen ior
Ad vertisement
Ġfre qu
Ġweap ons
I D
ĠB re
Ġh ar
Ġdis play
Ġprom ot
Ġn ice
Ġcred it
Ġdec ades
Ġp sych
Ġpolit ics
D on
Ġcr ime
O M
E C
Ġus es
in n
Ġdo or
Ġdis e
ut y
ĠIntern ational
Ġun ique
2 8
Ġal tern
Ġl if
A ccording
Ġd rop
Ġs ales
m ar
Ġdevelop ed
A r
res h
Ġcustom ers
E T
Ġbenef its
Ġconf lic
ur ance
Ġrel ated
Ġcris is
ĠS chool
Ġm ist
er ry
i able
Ġpred ict
Ġnot ed
ĠC ap
2 9
ĠAustral ia
ĠE U
Ġtr uth
b ox
p art
Ġgo als
in y
Ġindividual s
Ġch arge
ĠE arth
Ġbe aut
Ġcontin ues
on ents
ĠUn ion
ĠAr ab
Ġobs erv
Ġr ap
Ġchall enge
Ġst o
n own
Ġapp arent
ĠAng el
ite ly
ĠSm ith
Ġl ic
Ġproject s
Ġpe ace
Ġmeas ure
ĠPol ice
Ġcor rect
ot i
Ġintell igence
ĠChrist ian
Ġprev iously
ĠGerman y
Ġfull y
Ġr ule
Ġman ager
Ġbro ther
Ġr ates
Ġadv ant
U n
ch ange
Ġexp and
Ġcle arly
Ġre form
Ġl ines
n et
Ġsuccess ful
ri age
Ġhigh ly
Ġlarg er
ound s
2 1
Ġtr aff
Ġsp read
i ance
Ġseem ed
ĠCoun cil
k i
Ġstra ight
S ome
ĠCom p
Ġcr iminal
Ġmin or
Ġem b
ĠGeor ge
Ġprogram s
ic ed
at tle
ow ers
ĠFr anc
Ġinc ident
Ġres ources
ĠT om
Ġgreat er
Ġprim ary
I A
in ated
ant ly
Ġknow ledge
Ġstud ies
wh ile
d om
Ġsa ve
or ter
Ġwe b
ate gy
e an
Ġke pt
Ġatt ract
ĠFl or
ol ic
Ġsp ir
Ġem ot
qu e
Ġcol or
Ġfe et
ĠC r
se y
Ġr are
Ġre ached
ĠA nt
sec ut
Ġar m
ĠH igh
lev ision
ĠIntern et
ĠBro wn
od ay
id ers
os h
r s
Ġfavor ite
Ġpl aces
ĠR ec
Ġreg ular
w ide
ot a
ve re
ĠH am
Ġman ufact
Ġla un
ĠD ef
1 00
Ġs end
Ġpre m
ro ll
lic k
ic it
Ġknow s
Ġshoot ing
Ġactiv ity
Ġp un
Ġsour ces
Ġnorm al
ic ago
b on
ter m
ing ly
on ent
s er
v ille
Ġstat us
Ġfight ing
Ġvo ice
Ġr ise
oc ks
Ġf ine
Ġown ers
Ġca used
Ġclaim ed
ĠM ac
Ġen em
Ġlit er
ĠR ob
ĠGener al
a ith
E O
Ġopt ions
Ġ200 7
Ġinte gr
eng th
us ion
ĠU p
Ġsp end
ĠG old
ad o
Ġc ities
m iss
Ġorgan iz
IN G
Ġend ed
il ed
Ġresearc hers
Ġcall ing
Ġsh ut
Ġref lect
ĠL a
m ission
P ro
m ark
or g
âĢĿ ,
ol es
7 0
ro id
Ġpr ices
ĠE very
Ġal bum
ĠF rom
if ying
Ġemploy ees
Ġfem ale
ĠEng land
y a
ww w
Ġv irt
Ġha ven
Ġra ised
mit tee
Ġe le
Ġj ump
u ana
3 3
Ġsupp osed
it ness
Ġhapp ens
Ġadd ing
Ġpolic ies
Ġn ames
Ġcharg es
Ġpro s
Ġtr ou
ic a
rib ution
Ġbas ic
iver se
um an
N ot
ĠM ag
Ġconcer ns
Ġtrad itional
Ġwa it
ing er
Ġpl ant
Ġabs olute
Ġac qu
Ġh ospital
Ġfund ing
r am
ĠB ay
Ġpr int
Ġsl ight
Ġcom mer
ro l
Ġpat ients
Ġauthor ities
Ġmin ister
S c
Ġcreat ing
Ġh ttp
Ġf reedom
ĠA P
Ġme chan
Ġsc en
ĠM o
Ġst yle
Ġsee ing
Ġgr and
. âĢĻ
Ġbe at
Ġl ik
on a
ri an
Ġst ation
ĠSc ott
se e
Ġp ush
ij uana
Ġbehav ior
Ġbe g
Ġle aving
Ġc ry
Ġim pl
Ġb irth
Ġ ir
Ġact ual
E L
Ġens ure
p en
Ġoff ered
Ġagree ment
ĠFlor ida
Ġe th
so ft
ĠHill ary
Ġpost ed
Ġgo ld
ĠS un
Ġweek end
Ġg reen
ĠM ost
ĠB er
ĠRe g
al se
Ġwe ight
O U
Ġey e
. '
ac ing
Ġdeter min
Ġv ac
H ere
Ġreveal ed
ĠWe ll
Ġapplic ation
Ġmost ly
Ġval ues
Ġprop os
it ude
ĠA lex
ab y
Ġwill ing
ear ch
Ġr ank
Ġad op
ĠA ccording
Ġad ult
tt ps
Ġestab l
Ġrecord s
âĢ ¢
5 00
Ġen force
Ġpict ure
Ġbelie ved
p ri
Ġm er
ĠL et
u ild
Ġb rief
Ġlear ned
ĠL aw
Ġinst all
Ġstr ategy
Ġapp l
S A
ign ed
Ġcho ose
ist ry
Ġd ire
Ġwond er
Ġqu al
Ġmass ive
c her
Ġdev ices
Ġbenef it
Ġw ild
Ġpart ies
ĠCh icago
Ġun s
Ġlaw y
g en
ĠPe ople
Ġc ars
ĠTr ans
ĠP ort
c ont
ĠPh il
Ġarrest ed
Ġm ount
Ġwh atever
Ġw at
ĠO h
ĠFr ance
Ġstre et
Ġ ;
Ġprov ides
Ġwh om
Ġass ault
9 0
li ament
Ġask ing
Ġinflu ence
t ies
Ġjud ge
st e
Ġl ose
Ġf at
Ġfeel ing
Ġoper ations
Ġprodu ced
Ġtem per
Ġcrit ical
ĠSec ret
ĠL ou
Ġneg oti
Ġm ission
p oint
Ġent er
ĠB ush
E x
Ġim ages
Ð ¾
ĠSt ud
Ġconfir med
Ġshow ing
I L
Ġdist rict
ri ption
Ġrun s
Ġpat tern
ĠM at
Ġt end
Ġb order
Ġres idents
a e
or ial
ra v
Ġdeb t
How ever
Ġ Ã
ak ed
n o
Ġc ru
Ġte ac
m ine
ĠCom mittee
ud d
Ġopp osition
C l
Ġcele br
ĠW all
ĠHe alth
Ġse ction
Ġdef end
Ġet c
L e
est ic
Ġprodu ce
ic ial
ĠComm ission
Ġdr ink
Ġindepend ent
ĠM od
r ont
ce ll
ĠWh y
Ġbr and
ent ed
ag s
u gg
Ġc ore
ĠP ress
Ġt ick
Ġdig ital
ĠB it
Ġhe ro
Ġadv oc
Ġdoll ars
oc r
ri al
Ġeffect ive
Ġsol ution
ĠM al
Ġv ill
Ġinterest ed
ĠS am
ĠKore a
B A
Ġhig hest
ord s
Ġmem ory
Ġopen ing
Ġwor se
Ġlear ning
Ġrespons ible
Ġtri al
Ġd aily
Ġk ick
Ġthe ory
ĠO ther
Ġoff ers
ĠPal est
Ġrepl ace
Ġrest rict
ĠG et
Ġm ur
ĠOff ice
Ġag reed
Ġte levision
ĠFranc is
ci ence
ĠM icro
ĠB ecause
Ġocc as
S T
ill ing
C C
Ġv s
Ġdet ect
Ġtr ain
Ġinvest ment
Ġtyp es
i ation
ĠW estern
ak s
ic ians
Ġch air
Ġmil es
Ġmill ions
ur ies
Ġche m
ĠJust ice
ĠD el
Ġgener ally
Ġbas is
Ġprop osed
Ġ8 0
ĠM ike
ĠM il
ĠC up
The se
i pe
Ġhe avy
Ġexpl ained
Ġm ap
ĠO ur
A A
r ad
Ġd er
Ġb ur
o ly
Ġpart ners
and er
w in
ĠAd d
Ġopin ion
Ġdef e
Ġon to
Ġprot est
C on
____ ____
G et
Ġassoci ated
Ġl oad
r ig
az ing
ĠN FL
r ate
o om
4 4
ĠF ound
Ġm ale
Ġbecom es
Ġre ject
v est
out hern
== ==
ĠSec urity
Ġco al
Ġob tain
Ġdest roy
Ġadvant age
Ġass um
ĠL iber
Ġcond ition
Ġannoun ce
Ġhundred s
Ġachie ve
Ġopen ed
el ine
Ġunderstand ing
od es
ĠJohn son
com ing
ic ip
Ġsur round
ad ing
we ll
ort hern
ber t
l a
u pp
Ġinit ial
ĠB ig
ĠA tt
Ġsle ep
3 6
Ġsh ip
re y
Ġmar riage
Ġman agement
ĠWind ows
Ġth us
Ġlim it
Ġb orn
3 2
Ġbecom ing
k nown
Ġph oto
Ġeas ier
F C
ĠG reat
Ġr at
Ġlegisl ation
Ġcontro vers
Ġun like
Ġelect ric
ĠM any
Ġcamer a
wit ch
Ġacc used
Ġbl ue
Ġs pl
Ġneigh bor
Ġdou ble
Ġ ice
Ġspec ies
l ant
Ġsh ared
Ġjo in
te red
Ġilleg al
Ġ3 1
ĠL ab
Ġ200 6
M r
Ġmach ine
Ġh arm
Ġserv ed
ĠJ er
G B
Ġextreme ly
ol f
Ġact ive
Ġ3 5
Ġser ve
Ġdoc uments
ĠIslam ic
Ġfr ame
z a
Ġstri k
le vel
ĠD ist
Ġaud ience
B S
Ġloc ation
ĠA M
Ġscient ists
Ġbott om
Ġvictim s
ĠAr t
or row
Ġwe alth
Ġprofess ional
i h
Ġres ist
Ġredu ce
Ġbelie f
Ġn ine
Ġsol id
Ġwin ning
Ġmar ijuana
ear s
ĠU k
Ġneg ative
7 5
if ul
Ġcommun ities
Ġreturn ed
ortun ately
Ġb ed
m et
Ġinc red
ĠP M
ĠInst itute
Ġch urch
P S
Ġdep artment
ir gin
ĠSand ers
Ġr an
Ġvict ory
Ġpurp ose
Ġ9 0
ĠComm un
Ġam b
land s
Ġveh icle
Ġintern et
Ġleaders hip
i os
ĠH all
ist ics
Ġb omb
Ġmob ile
gh an
Ġinst ance
i pped
3 8
Ġsepar ate
Ġexist ing
Ġnot ice
Ġhe aring
Ġd ie
Ġexpl ain
Ġdoub t
Ġf aith
Ġte ach
h ouse
ĠY our
at ically
Ġepis ode
ĠF in
Ġwatch ing
Ġcom fort
ĠCanad ian
ĠB ank
Ġnot es
Ġrad io
ĠE v
Ġf resh
Ġun c
Ġview s
ĠIn c
Ġput ting
as y
Ġsupp orters
Ġconserv ative
Ġp urs
Ġarg ument
om as
Ġm icro
ar io
ac ity
Ġlaun ched
w orks
sc rib
O L
Ġapp eal
ili ar
Ġitem s
Ġcommit tee
res p
ĠM ad
wh ich
Ġdefin itely
Ġdanger ous
ill er
P A
z en
Ġco verage
Ġdire ction
ĠO ver
Ġcharg ed
Ġfl oor
Ġs un
Ġm ax
ograph y
3 4
E M
ĠCar ol
ĠCh urch
ĠF ox
Ġiss ued
Ġdrug s
Im age
i pp
Ġt ask
Ġback ground
Ġcompet ition
Ġtre nd
Ġst ated
v ention
and om
ad a
Ġtraff ic
ĠF BI
Ġcommer cial
ĠD irect
ur b
N A
it t
Ġsp oke
Ġset t
in ct
Ġtrans fer
ct ors
Ġsuggest ed
Ġst ructure
g u
ad y
Ġsit es
Ġh us
Ġn orth
ĠS ince
ĠL ike
Ġrest aur
ampions hip
Ġlab or
Ġdec ade
Ġrepe ated
ĠG ame
Ġre act
om an
Ġc ards
Ġanim als
go ing
Ġno vel
b ut
rib ute
Ġd aughter
ant ed
ĠS l
Ġdri ving
Ġcl osed
Ġwor st
Ġcont ain
Ġentire ly
Ġd ed
ĠBrit ain
g ency
B l
Ġdri ver
g a
ĠW il
Ġdise ase
Ġtell ing
il ing
Ġsmall er
Ġdisc overed
Ġn or
ak istan
ĠP ri
A meric
ĠL os
i us
Ġh ack
he m
! âĢĿ
f erence
ĠQ ue
e qu
s pe
Ġf alse
Ġc ash
Ġconcer ned
ul f
Ġpl ays
Ġsur face
se mb
Ġsupport ed
ann el
ul ated
Ġtool s
oy al
Ġcomp ar
Ġtrans port
ĠCh ris
Ġexper iment
Ġfind ing
n ight
Ġc ateg
ã Ĥ
Ġas pect
# #
Ġbusiness es
Ġ7 0
ĠU N
Ġfar m
Ġple ase
a it
Ġold er
az on
ph one
h ow
Ġactiv ities
Ġrequ ires
C H
Ġg ay
ĠJ ones
d o
ibr ary
Ġstreng th
4 8
Ġwe l
and on
Ġins urance
Ġg e
Ġcon sequ
3 7
Ġlarge ly
Ġmur der
N N
ic i
5 5
Ġex erc
Ġc aught
Ġcandid ates
k ins
ĠIsrael i
Ġallow ing
ic y
ĠA re
Ġann ual
ĠK en
Ġtest ing
ĠT re
oss ible
Ġstr ateg
ĠS up
Ġra ise
Ġst ock
ar ant
o very
ĠRober t
iz es
Ġdec isions
Ġacc ur
r ick
Ġcon text
Ġf uel
ĠA c
S P
l or
os ure
ĠUk rain
Ġconcer n
Ġaff ord
Ġbelie ves
Ġconst ruction
Ġtr uly
** **
ĠT y
ĠM iss
Ġjust ice
igr ants
Ġgener ation
Ġhigh light
Ġun it
r im
Ġpres ence
ĠJew ish
ang ing
! !
ĠS il
Ð °
ter y
Ð µ
cept ion
ĠAfric a
Ġgu ess
an cy
Ġw itness
it able
Ġhold ing
ĠG ree
Ġestab lish
Ġl ength
Ġplan ning
b re
ĠAfric an
Ġse qu
av a
ck now
Ġref uge
Ġpl aced
Ġc atch
ĠAf ghan
Ġs an
in ter
ĠAssoci ation
Ġtell s
âĢ ĺ
Ġsc ale
Ġspokes man
Ġt im
n el
Ġr ough
Ġatt end
oll y
ĠV er
Ġcell s
Ġjo ined
Ġmention ed
Ġinterest s
Ġab use
pect ive
ĠJ im
ĠP re
M ore
Ġhas n
ĠP C
e y
Ġinit i
Ġenforce ment
Ġk id
ĠG OP
Ġintrodu ced
Ġdeli ver
Ġconflic t
ĠM er
ĠMicro soft
Ġph il
âĢĶ âĢĶ
Ġupd ate
ro s
Ġmiss ing
Ġprov iding
Ġwa iting
Ġcan cer
3 9
Ġrecomm end
ocr acy
Ġestabl ished
is ation
Ġe at
b our
ĠY es
Ġocc up
ĠFr ank
ĠJ eff
ĠAngel es
Ġrem oved
Ġ200 5
ul a
Ġoff ensive
ĠF ore
ĠInst ead
ic on
Ġinj ury
Ġsp orts
4 7
Ġf ant
Ġdiscuss ion
v ant
Ġoper ation
Ġdown load
Ġuse ful
Ġnews p
Ġconvers ation
Ġhom es
ron ic
Ġs outh
Ġc ook
ĠC EO
Ġass ess
ĠG roup
it z
form ation
Ġban ks
ont o
Ġsto pped
ĠCon st
Ġobv ious
ic ations
Ġmeas ures
Ġmod els
ĠK h
Ġfour th
ĠM P
O ur
se ason
D A
wh at
Ġb ul
and a
Ġ201 8
Ġfil es
Ġgirl s
ĠLou is
Ġst ick
c ks
az ine
m ail
um n
Ġman aged
it er
app ed
ĠPalest in
ot ed
Ġfig ures
om s
ĠT im
Ġident ified
Ġgr aph
k in
ĠJ ud
ĠS al
Ġfin ished
Ġfund s
P l
re al
ĠP akistan
Ġset ting
Ġconc lud
Ġpre fer
Ġha ir
Ġcommit ted
ĠMex ico
4 9
Ġsk ills
Ġappro pri
Ġspir it
ĠR ock
Ġve ter
Ġfoc used
Ġarri ved
ĠTH E
Ġhous ing
ĠLe g
ĠV irgin
g ers
Ġkeep ing
Ġthere fore
Ġa cknow
ig an
ul ate
D es
Ġpart ner
Ġex clus
ĠAnd roid
ens es
up s
Ġear th
Ġtrans l
out s
pl ace
Ġt ough
ĠJapan ese
Ġ200 0
Ġrelative ly
Ã ¡
ĠSup reme
w ing
ow l
Ġident ity
Ġfeel s
ĠM et
Ġother wise
r d
Ġsurve y
R A
ĠR yan
oc al
ic ation
itution al
Ġprote ction
ag n
Ġex change
Ġown er
is f
Tr ump
Ġstep s
ĠIn ter
Ġtri p
im b
Ġhus band
Ġtwe et
Ġconnect ion
g ar
ĠAr my
Ġslight ly
ĠPro f
ere nces
e ah
k a
Ġwe ak
ĠGovern ment
ver se
" :
Ġcirc um
Ġele ments
Ġcl ick
ĠRich ard
Ġstri ke
Ġphot os
Ġme re
Ġdef ensive
dd en
Ġg ain
Ġf le
Ġdep end
uck y
Ġcol lection
ony m
hen s
Ġkill ing
Ġro ll
igh ter
G o
Ġcor ner
ĠMart in
anc ing
od ies
Ġsuggest s
u ct
Ġag gress
w ith
pro f
Ġgu ard
Ph oto
Ġg ender
m akers
ĠCol lege
Ġcomm ission
ĠAl though
r ange
Ġd at
ĠS ur
4 6
ĠI r
ĠD ec
Ġment al
ic ide
re es
Ġam azing
ĠS ub
h i
Ġplan et
ĠTe am
ren cy
ĠO ut
Ġbig ger
Ġfail ure
y m
ĠJ ose
Ġsupp ly
Wh y
an ia
ĠN or
Ġstart s
Ġs ides
v is
hed ul
Ġfam iliar
Ġrem ind
Ġsu st
il s
Ġspe ct
u ate
Ġspe aking
an o
Ġtal ks
Ġhappen ing
m as
Ġorganiz ations
Ġh ate
gy pt
Ġwind ow
ĠM ont
Ġar my
ĠG ood
ĠJ oe
Ġn one
u ke
ĠP et
Ġtax es
Ġplan ned
Ġthan ks
ĠM ary
Ġst ruct
l ig
Ġp it
Ġdec ide
Ġsu dden
Ġw ish
l o
Ġcre w
Ġcar ried
ost on
Ġp et
a wn
el ess
ag ues
yn am
Ġreg ist
T C
Ġmult i
id ering
Ġhelp ing
L ast
Ġa ward
Ġstand ards
Ġ3 2
ĠF ire
g n
Ġrev olution
Ġenvironment al
] .
ĠWe b
p m
ars h
ĠTh omas
ol it
Ġsc ript
ol a
Ġsecond s
r un
ĠRes earch
Ġscient ific
ĠB ern
Ġimm igration
Ġstand ing
ĠThe ir
Ġ4 5
Ġqu e
st ream
oc ol
Ġbe er
Ġdom estic
im al
ad ium
f e
Ġp air
ut ers
ĠAl so
ĠSecret ary
ĠU s
Ġac adem
Ġco ld
Ġvar iety
Ġmark ets
Ġs ch
H L
Ġter rit
Ġdro pped
Ġaccount s
! "
ĠAt lant
Ġfil ed
er ous
ack s
ill a
Ġbal ance
Ġimp ossible
ĠT er
a ven
Ġinter act
Ġneighbor hood
Ġdeg ree
R ead
Ġturn s
ore s
it ect
Ġposs ibly
Ġapp re
Ġoper ating
Ġpr inc
Ġaltern ative
Ġun ion
Ġvot es
Ġv ul
ad er
Ġprofess or
Ġt ack
ĠServ ice
Ġincreasing ly
ay er
ru it
Ġapp ly
Ġfell ow
Ġcut s
ste in
Ġhon est
ĠPr ime
Ġun ivers
Ġser ver
is er
Ġdevelop ers
ar ks
ĠSyri an
Ġapparent ly
ab b
are n
Ġl ived
Ġchang ing
Ġwor ry
rast ructure
ĠCarol ina
Ġtest s
Ġun its
Ġr ich
ĠT wo
c ious
ict ed
ad ed
F rom
Ġhum ans
I M
ĠFound ation
ĠM os
Ġag encies
Ġsound s
as hed
Ġtw ice
Ġult imately
ob by
Ġl osing
Ġphil os
Ġauthor ity
Ġsold iers
ã ĥ
Ġanim al
Ġat h
ĠIm ages
Ġset tle
Ġsc hedul
Ġm ut
Ġcol le
Ġcorpor ate
Ġabsolute ly
Ġhealth y
Ġpay ing
o ch
Ġequ ip
i ams
Ġdevelop ing
Ġse a
ĠT ime
Ġclos er
ĠD en
Ġinn ov
rel ated
Ġseek ing
Ġregard ing
c oh
rou d
Ġsk in
Ġexp ensive
ans ion
Ġposs ibility
Ġbeaut iful
Ġrelig ion
Ġap art
ĠCent ral
Ġfund ament
Ġexper ts
Ġsol ar
6 5
Ġy ards
Ġv ast
Ġwrit er
Ġfl ight
ĠDist rict
ĠL ast
Ġde ploy
Ġad just
O f
Ġintern al
Ġt ast
ĠU nder
ĠL at
3 1
ĠP eter
ap ers
Ġimag ine
ĠJ on
I V
Ġapplic ations
i ot
olog ies
Ġv ision
l ook
st ate
os en
ĠFrancis co
ĠTor onto
d en
Ġsit ting
ĠPl an
Ġtr ail
Ġun less
pr int
ĠUS A
ĠJ es
ist ed
Ġhe at
Ġ200 4
E ven
Ġrespons ibility
Ġcap acity
I P
at ures
ĠM iddle
Ġer ror
ain e
i as
Ġsy mb
Ġf ol
Ġar ms
Ġp il
Ġg ar
p ire
Ġc overed
idd en
ĠB ur
Ġapp oint
Ġfam ous
ĠC amp
Ġfor ms
u zz
N D
Ġun iversity
Ġgu arant
Ġt ight
Ġpresent ed
ort ion
ov ing
en ced
ĠS T
ĠE gypt
Ġear n
ĠP ut
g l
Ġconv ention
u nder
J ust
ĠP ublic
Ġsurpr ise
Ġatt orney
Ġelect ions
Ġestim ated
Ġf if
ĠA ri
Ġte en
Ġinst it
Ġveh icles
rib le
ĠAm azon
ro ad
Ġint ended
Ġr id
Ġo dd
Ġhelp s
Ġoccur red
p erson
Ġstre ets
ust er
in i
h and
ĠB oston
ĠS ol
Ġ= >
= "
ĠM ur
Ġsp ort
s en
Ġdeter mine
ress ive
ĠBit coin
Ġexper t
all s
Ġcons ult
ur ation
L et
Ġbro ken
le ts
Ġf ired
Ġt on
Ġfl ow
Ġdom in
ĠG al
por ary
ed er
L E
Ġsh all
Ġres erv
Ġtro ops
I ON
ĠTh ose
Ġhy p
U p
Ġn ar
ter day
Ġpie ces
ĠCh ief
Ġprep ared
ĠM ass
ĠC ath
Ġrap id
or age
ĠJ o
ri e
Ġloc ated
ĠSoc ial
N e
Ġb aby
-------- --------
Ġcon clus
Ġbring ing
anc he
Ġpro ve
Ġspecific ally
ĠAn y
Ġpot entially
Ġse ctor
Ġr andom
Ġj ail
O W
Ġse lling
Ġgovern ments
ĠO nce
ĠV e
Ġsc r
A b
Ġequ al
cl ass
w ar
Ġf aster
Ġhe av
Ġbo ost
use um
ve y
Ġcl in
Ġpropos al
ot y
Ġfact ors
Ġpl enty
T H
Ġequip ment
Ġcoun cil
Ġer a
Ġinf rastructure
D o
Ġst ress
ph as
Ġst ars
ĠJ ournal
ĠR ub
end ment
ĠVirgin ia
Ġb reat
Ġpro secut
Ġvot ed
Ġoff ering
Ġcar bon
in ent
Ġexpress ed
Ġcomb at
Ġvul ner
ĠPar is
Ġbro ke
( )
ure au
Ġcl ot
our s
Ġrul ing
ĠF ederal
Ġret ail
ĠGu ard
Ġref used
Ġdr am
Ġelect ed
ĠD an
ĠO pen
ĠR iver
E very
Ġsec ure
ce an
Ġse asons
Ġconduct ed
, '
h t
Ġchalleng es
Ġrem ove
is her
ĠS ant
Ġmethod s
Ġweap on
n oon
Ġpoint ed
ĠIs land
Ġm aster
Ġrem ained
ĠAustral ian
Ġpr ime
EN T
Ġtr ig
Ġpos itions
ĠC ru
Ġinf ect
Ġd in
ĠM el
Ġcritic ism
i pping
F irst
ock ing
ĠMed ic
ĠF e
ĠP lease
ro g
on om
I G
Ġs ale
ol ved
Ġcult ural
th at
Ġwere n
Ġsignificant ly
Ġb row
et ic
Ġorig inally
ĠD uring
Ġaffect ed
Ġappear ance
Ġc as
Ġt ourn
Ġfac ing
Ġgreat est
Ġfin ish
ĠLe e
Ġst ret
y r
Ġyou th
Ġte le
ĠWh o
ĠC ur
Ġpercent age
ĠPh oto
S te
c ol
Ġdetermin ed
Ġsign s
Ġinvol ve
9 5
ce l
Ð ¸
6 4
Ġthan k
Ġb ought
Ġ5 00
ly n
ĠS ing
stand ing
Ġchem ical
ash ion
Ġsh ape
Ġv ir
Ġreg ime
Ġg rew
p ired
Ġrem aining
ĠSte ve
ly mp
in te
Ġmin imum
ĠS aud
re ens
Ġind eed
Ġd ream
ri er
al ing
S ince
Ġm arg
S p
ĠB oth
> >
Ġmod e
Ġher self
Ġvot ing
ĠCol or
Ġobv iously
ĠFor ce
Ġredu ced
ord in
ĠN ov
Ġw ood
ĠR em
Ġrecord ed
Ġarg ued
Ġ199 0
Ġre venue
Ġt act
ĠR o
Ġwe aring
igh ters
Ġlead s
ed ia
Ġh un
Ġpolit icians
Ġpl us
Ġcont rast
Ġs witch
Ġhand le
Ġpurch ase
Ġth r
Ġsub s
Ġcon cent
Ġpro ced
g ment
Ñ Ĥ
t op
Ġag ent
ar p
ĠWill iams
Ġappre ci
Ġexperien ced
Ġh urt
Ġexc ited
Ġvide os
Ġh ttps
coh ol
Ġsupport ing
D P
ĠH aw
m m
ow nt
ĠF ree
Ġsurpr ising
Ġmin ute
od d
ll er
Ġexpl os
ĠP ac
Ġbel ong
Ġconsum ers
Ġident ify
Ġcons idering
ĠCons erv
ap ter
Ġair craft
Ġre nt
Ġa id
Ġpull ed
C L
Ġbas ically
Ġdiffere nces
og ue
ĠB ook
Ġgl ass
h ttp
Ġafter noon
ĠR ad
Ġsh ift
Ġdis s
Ġdep art
Ġend s
ess ions
Ġt urning
Ġb ound
Ġfil ms
Ġsp ring
Ġpros pect
ru ption
k et
ĠChar l
h ab
Ġm ort
0 5
l ife
Ġtre ated
Ġacc ident
, [
S e
0 1
Ġmot iv
Ġlist en
Ġse at
ĠP ower
ut s
Ġcomb ined
Ġconst ruct
I nd
Ġser iously
Ġpriv acy
app ing
Ġeven ing
he red
Ġopportun ities
as p
h y
Ġstrugg le
Ġ19 5
Ġpan el
Ġenem y
Ġlot s
P e
Ġcomple ted
ĠD aily
Ġvis ual
H is
p et
Ph one
Ġtalk ed
Ġc art
Ġhop es
or al
Ġpass ing
Ġ id
Ġapp s
os ite
ĠSte p
P D
Ġcal cul
An other
Ġwide ly
ens ions
Ġemer gency
ĠH ol
ĠSh ow
Ġsu it
Ġe lement
am m
Ġa st
ang ed
al ed
uc ks
S S
Ġp owers
at o
ĠR el
ĠB BC
Ġfl at
ĠO lymp
Ġb urn
T V
Ġdisc l
Ġpl ants
ob e
ĠSp ace
Ġliber al
ra ud
Ġopp osed
W ell
Ġpro ceed
om pl
Ġcopy right
st s
ok ing
ĠPro ject
Ġadv ance
Ġfact or
Ġdist ance
Ġ200 3
ive red
Ġdis miss
pl om
Ġattempt s
Ġt un
ĠR oad
ĠM att
ab ilities
A m
ribut ed
ĠI N
Ġtrou ble
un ction
Ġh ol
Ġcoll abor
Ġdef ault
id el
ĠB et
Ġz one
ĠJack son
Ġup gr
ra wn
it a
C ont
Ġre action
Ġst orm
Ġrep orters
ĠM em
Ġfr ust
P R
ne ll
m osp
ad ow
Ġwrit es
m ond
ain ts
Ġtyp ically
ĠT oday
l ines
resp ond
U T
Ġp ages
Ġinst ruct
ed s
tern al
Ġref erence
Ġpack age
Ġb odies
z er
Ġmat ters
f ree
4 2
Ġden ied
c are
ed d
A pp
Ġqu ant
Ġdisapp oint
Ġse m
Ġexpl o
D e
ĠN AS
Ġopt im
ac he
Ġqu iet
Ġent ertain
Ġm al
Ġrespond ed
Ġappro ved
ĠTur key
Ġsat isf
ap ed
Ġbroad cast
es ters
Ġinstit utions
Ġad vert
Ġstand s
ĠDirect or
Ġset s
est ival
Ġel imin
is ters
raz y
Ã ¤
R ep
ĠP enn
Ġval id
h ost
Ġre new
ĠOh io
00 00
Ġspl it
ell y
Ġse vere
ĠWill iam
Ġs ac
ab in
Ġcap able
Ġ200 1
Ġ //
Ġp itch
ani el
Ġcapt ion
Ġcl oud
Ġl oved
Ġtechn ical
Ġg iant
p ass
Ġcan n
Ġtrad ition
r ant
Ġprom pt
Ġb ull
Ġconf ident
u ous
Ġconf idence
Ġnum erous
Ġreported ly
Ġfac es
] ,
w rit
Ġwe ather
Ġf ly
ĠM a
Ġtrans ition
r id
Ġ3 6
ĠSy stem
ĠAfghan istan
Ġg ra
ĠS qu
w ater
Ġcre ation
Ġpers pective
Ġun able
Ġfor get
ĠLab our
ĠY et
4 3
as tern
em ploy
ok en
ĠMed ia
ang ers
I I
un te
Ġc raft
Ġsubst ant
Ġco oper
Ġviol ent
Ġsuff ered
il it
Ġco ast
Ġm and
amp ion
Ġpict ures
Ġexperien ces
Ġappro x
ab led
Ġrout e
8 8
se x
Ġfl ag
Ġadv ice
ĠAnd rew
us iness
Ġdecl ared
ĠW al
Ġord ered
ĠH uman
raz il
Ġcr imes
Ġco ff
Ġp roud
is hes
Ġreport ing
Ġmess ages
Ġcircum st
Ġfind ings
ĠL in
R es
Ġev al
ul ations
Ġex cell
O ver
Ġdecl ined
Ġexpl ains
Ġdel ay
Ġ \
ĠF ollow
Ġnewsp aper
ound ed
Ġconnect ed
il ty
Ġshould n
ev in
ov es
Ġon going
c an
Ġv an
du le
Ġmov ies
Ġpick ed
ion ally
res ents
7 7
Ġad mitted
Ġdel ivered
D uring
Ġgun s
ĠM L
ĠSc ot
Ġwalk ing
Ġag ents
c alled
Ġpr in
t ion
Ġedit or
Ġthough ts
Ġmar ried
ĠT ra
Ġa uth
Ġem ails
Ġappropri ate
Ġem phas
u ations
Ġed ge
Ġarch itect
ĠGr and
Ġle aves
Ġupd ates
Ġacc ompl
O D
Ġg ather
ĠMuslim s
Ġfor g
ans as
ĠW ood
Ġquarter back
Ġs ession
o oth
4 1
ĠTe chn
Ġpo ol
ĠS cience
c os
Ġinj ured
ar n
Ġpublic ly
ell ow
ĠS ov
Ġstate ments
Ġper man
Ġleg it
ar l
ner gy
M A
Ġconf irm
ĠL ake
Ġour selves
ĠS pr
O ther
Ġreal ize
Ġdri vers
Ġro t
ĠA v
ĠD ou
T A
m ates
, âĢĻ
Ġar med
ess or
Ġd ial
T e
c ons
Ġlawy er
our ney
Ġr ail
Ġread ers
re land
Ġs ad
Ġcont ains
Ġarg ue
ĠRe v
Ġtal ent
Ġf illed
ĠS um
Ġalleg ations
Ġactiv ists
ĠChrist mas
Ġd ynam
Ġ198 0
ĠMich igan
d ate
ĠB ack
ĠR on
Ġcr ack
Ġtrans form
T ube
ĠI ll
Ġbuild ings
ĠRe ad
l ong
Ġwe ar
M any
Ġterror ist
Ġs am
Ġt ree
Ġexerc ise
end a
Ġlab el
Ġeffect ively
O h
Ġpract ices
et te
al a
Ġsub sequ
ĠJ ul
ĠS her
ul s
Ġfl o
Ġf ish
T S
ent ure
Ġsh op
Ġexam ples
ĠH y
ĠSe e
Ġpat ient
ĠG en
Ġwas te
ĠSe attle
Ġobject s
Ġte ch
Ġsecret ary
as ure
Ġr ain
g ia
Ġmiss ed
Ġca uses
ill y
r um
Ġdeb ut
ĠR od
Ġess entially
6 6
Ġmor al
ord ers
am in
ad or
w ord
ac ter
ĠW ork
d ef
ar ters
ĠUkrain e
Ġcent re
F ollow
ĠBl ue
ĠV ict
b ur
ĠSt an
ĠI D
ic ing
Ġinj uries
ĠPh ot
Ġmot or
Ġi Phone
Ġart ist
Ġcl ient
Ġb ond
Ġth inks
i at
or se
ou ston
Ġp ure
Ġhe ll
Al though
ĠSaud i
Ġfact s
Ĥ ¬
Ġdes ire
ag ers
az a
Ġs ke
or ry
Ġlink ed
Ã Ń
Ġgovern or
Ġmaterial s
Ġperform ed
S pe
Ġfr anch
es ome
Ġsu c
Ġphilos oph
Ġinit ially
i est
ĠS ign
Ġnecess arily
ĠB at
ĠF er
Ġexp ansion
Ġschedul ed
ER S
Ġwar ned
Ġdi plom
Ġadv anced
Ġ ing
Ġexpl an
Ġvar i
Ġevery body
Ġj oint
Ġdec re
Ġres olution
Ġincre ases
en ger
Y es
Ġaccept ed
Ġinc or
Ġmy ster
Ġfac ed
Ġb are
ill ance
ĠM ount
Ġannounce ment
Ġfollow s
g ent
Ġn ations
Ġplay off
ĠL ife
Ġab andon
ĠSec ond
Ġrad ical
Ġath let
Ġne ither
Ġyes terday
Ġdat ab
Ġnear by
Ġdist ribution
ot ic
Ġappl ied
ir ty
Ġmag azine
M ost
ath an
r ich
Ġm ir
Ġconsequ ences
Ġdo ctor
Ġlist ed
ĠCol umb
Ġat mosp
Ġfor t
Americ an
u y
Ġsurpr ised
Ġoff ense
Q u
it ors
ĠC NN
ĠR E
Ġsp ons
Ġbeg ins
ĠWe ek
Ġthreat s
Ġa f
semb ly
Ġrep resents
ĠJew s
ĠG M
ĠA ff
Ġen h
Ġmov es
Ġrem ark
ĠT O
Ġp ra
Ġsong s
k ay
Ġch art
Ġbehav i
om in
Ġr ide
Ġadd s
Ġwith d
C an
Ã Ĥ
Ġimpro ved
ri p
Ġp hen
Ġb ot
Ġwar m
Ġal cohol
Ġout put
ĠA T
l aw
Ġfl ood
ĠDe velop
ĠH en
w hel
ed y
Ġsh ots
Ġf ill
ĠV ol
Ġst ood
Ġbr ings
Ġal t
Ġpus hed
Ġgu ilty
ĠRom ney
ĠK im
Ġsub scrib
8 5
Ġent ry
ocrat ic
ĠB razil
Ġdem ocracy
Ġboy s
Ġ3 3
Ġro w
ĠSw ed
Ġconf ig
Ġrestaur ant
ĠN BA
Ġlaws uit
ĠDe v
ĠI reland
ac le
Ġmanufact ure
Ġrece iving
Ġre in
ĠBar ack
The n
Ġt rib
Ġtot ally
ĠOn ly
Ġdiscuss ed
Ġs ought
Ġr ising
Ġent ered
ĠIS IS
ĠBo ard
Ġconsist ent
Ġhistor ical
t witter
ide o
Ġst orage
Ġcor respond
Ġplan e
Ġcomb ination
Ġsc ored
Ġin put
Ġ3 00
Ġsymb ol
Ġbr ight
Ġbut ton
ird s
Ġsuc ceed
st ood
Ġcreat ive
Ġinvest ors
Ġsqu are
Ġart icles
Ġ200 2
Ġis land
m es
Ġdeath s
Ġfun ctions
Ġnet works
Ġclass es
Ġunlike ly
al ty
Ġhead s
ic ian
Ġb oss
Ġn ative
ic ious
Ġl ie
Ġsa v
ĠL ib
Ġrough ly
Ġconsum er
ĠSt r
ĠW he
ĠW alk
ĠP rem
f ortunately
ĠM s
Ġstr ing
ĠMay be
Ġheav ily
ĠAn other
Ġfair ly
Ġtemper ature
ard en
Ġk it
Ġexist ence
ĠIt s
ĠAs ia
Ġcont est
A dd
Ġpl ot
iss ions
d is
ĠC ub
Ġres ident
us al
Ġtarg ets
ĠB ob
Ġres c
ĠKore an
ic an
du c
Ġl ock
Ġyoung er
M an
' ,
Ġcolle agues
P U
Ġl ibrary
Ã ¶
Ġr ally
Ġpar liament
Ġprot ests
Ġany where
ok ed
ĠS ports
ĠS ky
Ġb ike
z ona
Ġbre aking
i i
Ġgr ab
Ġsy m
Ġstore s
Ġexpress ion
Ġch ain
Ġbl ow
Ġwar ning
Ġimport ance
Ġdef ined
Ġbu ying
g reg
Ġman age
Ġpro hib
Ġclass ic
Ġc ere
Ġs now
Ġadult s
Ġill ust
ĠE ach
S ee
Ġmarket ing
O b
Ġl inks
Ã ³
iqu es
Ġsh if
b orn
and al
ĠCl ub
Ġto w
ĠH ist
Ġf raud
O C
Ġfac ility
olly wood
ch o
Ġhard ware
Ġsch ol
Ġalleged ly
Ġ3 7
Ġregul ations
p ret
Ġdo ctors
Ġb on
ĠColor ado
Ġcur rency
Ġhouse hold
Ġrepl aced
ag an
Ġess ential
ĠR am
op y
Ġem pt
on na
Ġsome what
ĠD iv
p ress
8 6
Ġn av
p ower
Ġfav our
Ġprom ise
ĠD C
ĠB oy
Ġl augh
P ol
ĠR ights
Ġhold s
Ġopp osite
ock et
en a
Ñ ģ
Ġmom ents
w est
Ġh at
ter ing
Ġopp onent
Ġbu g
ĠF ar
Ġcamp us
Ġact s
Ġr um
etro it
Ġvers ions
Ġmot ion
Ġmet al
hip s
Ġev olution
omet imes
Ġv ice
an ish
Ġrele vant
Ġse es
ĠIm age
Ġb ag
Ġindust rial
Ġz ero
Ġs ick
I R
Ġd ownt
om a
Ġclose ly
ĠAn n
het ic
Ġemot ional
c hen
g ame
I F
ĠYou Tube
ĠY ear
Ġfew er
Ġdiv ision
ol ve
v a
Ġad m
Ġhard er
Ġref ere
Ġcustom er
Ġhop ing
olog ist
Ġto m
ĠBro ok
Don ald
E n
ĠVal ley
Ġh ur
ĠG ra
Ġmechan ism
it tle
p o
m l
ĠH ouston
ĠE lect
in em
Ġreturn s
N C
ate ll
Ġvol unte
Ġparticip ants
Ġext ent
Ġint ention
g as
al ian
es c
el lect
Ġexcell ent
ĠSov iet
p an
Ġacknow led
Ġsy n
ul ous
om ing
ĠM ot
ĠG ames
Ġsqu ad
Ġcircumst ances
Ġf ashion
Ġis ol
Ã ¼
ot al
Ġimmedi ate
ĠE ric
Ġsuff ering
ĠW atch
st r
Ġl ies
Ġbat t
Ġt iny
Ġauth ors
Ġ3 8
Ġg rown
ig er
ĠG ar
ef ully
Ġimm igrants
Ã ĥ
or a
Ġkind s
ut ch
Ġ4 9
ĠD ie
Ġche ap
Ġm ine
Ġdetail ed
ord an
ĠH el
n ame
Ġfeat ured
ĠW ik
ĠE r
ĠS ar
ay ers
Ġme at
Ġun us
ĠA ut
Ġcompet itive
Ġdescrib e
Ġfor med
ĠH ome
ĠI P
f riend
n ic
cer tain
Ġcarry ing
Ġtourn ament
Ġter min
Ġtr ick
Ġrelationship s
Ġfundament al
ke l
Ġw ave
Ġcy cle
ob b
Ġc razy
ĠC y
Ġsign ing
ĠW ay
rom e
Ġgu ide
Ġw ins
ĠCath olic
Ġear ned
0 8
Ġdec line
Ġreg ional
n am
ens us
st yle
Ġem br
Ġstr ange
ĠPalestin ian
ĠJes us
ĠL ong
Ġan cient
Ġfrequ ently
0 6
Ġact ing
ĠPut in
Ġman ner
Ġeff icient
Ġpus hing
ĠC IA
Ġcomfort able
ĠC ard
Ġp ip
O RE
P er
Ġsh aring
Ġw ire
Ġsk ill
ĠE conom
oc key
c hers
Ġinst ru
ĠE ll
Ġown ed
b ar
Ġcommit ment
Ġalong side
ĠO F
u ated
an es
ĠL ord
0 9
ĠDav is
r ison
Ġcontrovers ial
Ġart ists
Ġrefer red
we ight
Ġe gg
Ġm outh
Ġrepeated ly
Ġ4 8
ĠT op
ï ¿
Ġ3 4
F P
aw a
Ġattempt ed
Ġfem in
um ber
Ġupd ated
f oot
Ġc ert
v in
Ġpre gn
u a
ĠO ld
Ġsche dule
x y
ĠP S
am ily
ad el
Ġded icated
Ð ½
Ġpost s
ĠA L
Ġsent ence
Ġup coming
ĠR ight
ĠN Y
ĠD own
ĠD i
Ġcol umn
h us
Ġdep th
Ġpl ed
Ġvirt ual
u able
Ġj ourney
Ġstru ck
Ñ Ģ
Ġdes k
Ġstud io
Ġreal ized
ĠE nergy
Des pite
ce ived
% )
ograph ic
k o
u gh
Ġmed ic
D S
Ġserv ing
iam i
Ġwalk ed
ri ve
iven ess
Ġk ing
Ġr ing
Ġrep ut
ph y
y ou
Ġur ban
0 7
ĠC le
ĠChar les
ĠW ild
Ġtarget ed
Ġch annel
g or
Ġass ets
lud ing
Ġt ort
Ġins pired
Ġhot el
ĠAri zona
Ġnews let
L ike
T wo
ĠSu pp
Ġun iverse
Ġag enda
Ġca using
Ġwat ched
Ġsu icide
Ġstre am
Ġover whel
ĠP y
Ġus ual
Ġsurve illance
ĠM en
Ġint ent
so le
Pe ople
Ġl iqu
Ġs ister
Ġopp onents
Ġchair man
Ġd u
ĠW ars
b el
ĠCru z
Ġmain stream
Ġlat ter
Ġh all
Ġsurround ing
Ġfol ks
Ġknow ing
Ġord ers
ĠIn f
Ġrem ote
Ġ7 5
Ġs and
Ġliter ally
ĠJ ava
Ġobserv ed
ĠAg ain
Ġsubs id
F r
ĠDef ense
Ġinf l
Ġappro val
ac c
ren ce
im ents
Ġbas ket
b urg
Ġteac hers
ĠV an
az i
av or
iz z
az e
Ġwin ter
ici ency
al le
Ġexc iting
i ro
ay lor
ĠT al
Ġform at
b oy
Ġcon gress
Ġprotect ed
at i
Ġnot iced
Ġsim pl
Ġdeal ing
ĠYou ng
r ations
ĠCh ild
Ġprec ise
x ual
6 7
Ġdeep ly
i pl
Ġcommunic ation
Ġg ang
Ġs ending
Ġfor th
ĠJ r
Ġf asc
Ġbat tery
Ġw al
m un
Ġsk y
Ġn arr
Ġfix ed
p ost
ab is
Ġas ide
Ġrequire ments
I nt
Ġproper ties
r ors
w art
Ġal ive
Ġnar row
Ġw ake
all as
Ġpass ion
ĠAr ch
onym ous
O r
Ġe ating
ens ity
Ġmist ake
w oman
Ġexpl ore
Ġcoff ee
ĠP an
Ġ197 0
Ġra pe
Ġvol ume
Ġprom ised
Ġd iet
ack ing
Ġris ks
Ġex hib
ĠPol it
ĠF ort
Ġswe et
M ay
âĢĻ .
ĠEn ter
ĠW at
Ġne ut
Ġinvol ving
Ġw age
Ġse lection
ĠM ax
Ġtest ed
et her
Ġfl u
ult ure
Ġdefe at
Ġn orthern
Ġre ward
Ġwel come
ĠC ast
Ġext ended
Ġput s
Ġterrit ory
Ġphen omen
Ġun employ
Ġrefuge es
Ġs ample
Ġhe ight
Ġapprox imately
ĠK evin
5 9
Ġbl ame
ĠBr ad
Ġany way
um s
ĠD etroit
t a
Ġdestroy ed
ob ile
Ġimp ressive
ĠStep hen
as ks
Ġg od
Ġpro of
Ġg ap
Ġd ry
ï¿ ½
Ġcr ash
Ġun known
Ġloc ations
0 4
Ġselect ed
ap se
Ġw est
ang es
ger y
ĠF il
st one
Ġattack ed
Ġmax imum
ĠM iller
ĠWil son
ĠT it
Ġprom ote
Ġshe l
Ġmere ly
Ġfranch ise
ar ry
l v
Ġrequ ests
Ġsh o
Ġret ire
Ġsudden ly
as er
Ġslow ly
Ġprot esters
Ġdis ag
d ro
Ġteac her
i xt
Ġtyp ical
ĠIn s
og an
ĠW omen
ing u
Ġcon ver
l ist
Ġch ose
ĠC amer
ĠCl ass
Ġmat ches
ĠL u
Ġlic ense
Ġproper ly
Ġass ume
or ation
Ġdisc over
0 3
Ġw id
ĠP R
ĠM ic
R el
Ġwor ried
Ġmod er
f ire
Ġab ortion
ow ered
Ġall ies
a o
Ġterror ism
Ġob lig
0 2
Ġsupport s
Ġ Î
uild ing
Ãĥ ÃĤ
ins on
ver ty
Ġarg uments
Ġthem e
Ġad apt
Ġconf ront
Ġfac ilities
Ġsust ain
ig g
g ender
Ġe ast
Ġp al
Ġrecogn ize
ig ure
Ġf uck
ÃĥÃĤ ÃĥÃĤ
l ies
Ġequ ival
Ġobtain ed
m o
Ġpo verty
Ġr ub
ĠIt aly
Ġnom ine
Ġde als
Ġfe es
al o
it arian
os is
ĠH ollywood
Ġunder stood
Ġcontro lled
V ER
ĠB est
ĠD am
Ġtop ic
Ġcrit ics
ĠSoc iety
ĠAg ency
ax y
ĠF ord
Ġso le
ĠJer sey
ar ity
Ġvill age
Ġdi agn
ĠAd minist
ra id
6 8
Ġlik es
ce ler
st ers
ĠF our
Ġev il
Ġpun ish
Ġd ress
c ript
Ġp ed
ĠGeor gia
Ġb unch
ĠComp any
Ġjournal ists
J ohn
Ġexp osed
Ġreg ions
red it
oc ation
Ġsche me
Ġcommunic ations
Ġtrans p
Ġst im
Ġlim its
Ġsome how
Ġstrong ly
Ġhon or
Ġdr ag
Ġresist ance
ll s
a ire
Ġch ampion
ĠL abor
Ġconst ant
Ġph ase
ĠNAS A
p ool
ast s
ĠCar l
Ġtr uck
Ġprof it
Ġcond em
Ġesc ape
Ġperson ally
ĠN ight
ĠD un
rim ination
ĠL and
au g
Ġb id
ĠN HL
ĠSt and
Ġvac c
Ġdec k
C A
nes ota
if orm
Ġfall ing
GB T
ĠNet work
Ġsome where
em s
c ers
Ġemploy ee
ad s
Ġhar ass
Ġbe ar
ĠC D
in er
Ġcompar ison
ort ed
ci ples
Ġpoll s
ow a
Ġin qu
ĠL ove
pect ed
Ġs outhern
Ġdec ent
or ic
c ow
ĠSp anish
Ġencour age
Ġem issions
Ġ3 9
ĠK n
ĠV iew
end ers
Ġempt y
ĠM iami
Ġh its
ost er
ĠC am
Ġdefin ition
5 7
Ġp ic
Ġdirect ed
ĠB ell
p es
Ġf lex
w an
z ens
ĠO k
Ġmeet ings
ĠE nd
Ð¾ Ð
Ġcomp rom
Ġwin ner
int end
ick en
Ġgot ten
ĠD aniel
ĠTur k
Ġelectric ity
a un
Ġch osen
Ġoffic ially
Ġben ch
Ġstret ch
Ġdatab ase
ĠDes pite
Ġint ellect
Ġsp in
ig ation
Ġstrong er
C om
Ġde leg
Ġpurp oses
ĠD NA
Ġcut ting
ĠT urn
Ġf old
r ary
Ġext ensive
Ġamount s
Ġdes per
Ġtre es
Ġan x
Ġide al
ĠAs ian
Ġth read
Ġfif th
Ī Ĵ
U R
Ġgood s
Ġcol on
Ġdevelop er
Ġclaim ing
un ning
An y
Ġre tain
Ġs oul
Ġcapt ured
ĠTh ough
Ġfind s
Ġdri ven
Ġpay ments
as ters
ĠJ ordan
r as
C S
Ġt ies
Ġreason able
Ġdog s
â ĸ
Ġsome body
Ġend ing
ĠN ations
Ġcho ices
Ġb le
Ġse ats
ĠServ ices
ĠTh ank
Ġp od
Ġeng age
Ġd rawn
Ġs ight
C E
Ġpar am
ĠD ar
Ġthreat ened
Ġrul ed
ĠAtt orney
ĠIr ish
ur a
ep ing
ĠSe a
Ġtrad ing
ow ed
Ġprim arily
Ġaspect s
Ġf ighters
M L
Ġansw ers
Ġperfect ly
ir ms
ĠAc adem
Ġinc l
Ġr ival
Ġpark ing
Ġreject ed
ĠG all
Ġconst antly
ĠH un
f ast
Ġpay ment
ĠC at
Ġdist inct
Ġf lying
Ġr ig
Ġtechn ologies
ĠRe al
< /
Ġcomp onents
Pol ice
Ġad mit
ĠScot land
Ġelse where
ĠD ark
Ġconst it
Ġt ur
Ġany more
ld er
Ġfield s
Ġ icon
Ġestim ates
E W
se a
Ġsol utions
Ġresult ing
7 8
ĠB ru
Ġaw esome
Ġenc oun
Ġprov ince
m od
Ġworld wide
Ġact or
Ġreg ularly
ĠMo ore
Ġcour ts
Ġnarr ative
O nce
Ġb oot
ĠU t
Ġenem ies
Ġmix ed
reg on
ĠO S
ĠDis ney
s m
ic er
Ġhous es
Ġno body
ĠS k
in ations
Ġcontrol s
ĠW ater
Ġlet ters
ap es
ag ram
ian a
im p
Ġ4 2
Ġm urd
Ġmay or
Ġout come
ĠM S
Ġcont em
se ll
v y
S ec
s hip
ĠL ight
on ic
is an
Ġap artment
ĠSte ven
Ġcoal ition
Ġcontribut ed
ĠB as
Ġt ank
Ġconclud ed
ĠAd am
Ġex ists
Ġfound er
ĠB rian
ear ing
ĠT w
ĠL ew
Ġatmosp here
Ġprof ile
Ġbre w
ĠI d
Ġsit uations
ĠCh ampionship
Ġlo an
ĠA uthor
r ates
Ġincred ible
ĠConst itution
Ġsign al
ot es
Ġaccur ate
3 00
ĠR og
ĠVict or
ot ten
Ġun p
ĠW here
k er
ĠS outhern
." [
Ġemploy ment
Ġcl ients
D r
Ġkeep s
Ġinform ed
Ġcontin uing
in ity
Ġbase ball
Ġgener ate
Ġtick et
Ġcon ven
Al so
ĠCon f
Ġwe ird
Ġt ied
l ock
adel ph
Ġcateg ory
z y
il arly
ack ed
Ġang ry
ĠOr gan
Ġrout ine
ar on
Ġk il
Ġra ising
if er
Ġmach ines
Ġregist ered
Ġprov ed
the re
Ġdem ands
Ġg aming
ĠIt alian
Ġincred ibly
Ġcru cial
M P
Ġst uck
ĠC ivil
ĠD allas
c r
Ġter rible
5 6
Ġfeed back
Ġu pper
Ġpl astic
Ġim per
Ġnew ly
ĠJose ph
Ġconsum ption
r age
Ġdo zen
Ġent hus
Ġest ate
al i
Ġinn oc
Ġman ip
ĠT em
Ġcons cious
Ġbill s
ĠC ross
ĠSp ain
ific ations
T oday
Ġwrit ers
Ġex cess
ind ing
Ġaggress ive
Ġrep orter
Ġcomp ens
Ġret urning
Ġst ead
Ġprogram ming
ĠTh anks
Ġrepresent ed
Ġconclus ion
9 8
Ġr us
ĠB owl
ĠA R
Ġorig in
Ġassist ant
M S
adelph ia
Ġro ster
ĠMin nesota
Ġorgan ized
ri a
Ġpen alty
Ġdrink ing
l ers
Ġpain t
Ġs atell
Ġg ro
ĠPro gram
Ġcapt ure
Ġcons pir
Ġinter pret
Ġexplan ation
isc al
n i
5 8
Ġcount y
isc ons
ess ed
im a
Ġ %
m ont
ann y
gor ith
em en
iscons in
Ġassist ance
ĠRom an
Ġcompl aint
Ġr u
Ġn ut
L A
Ġmag ic
Ġt all
ĠO per
Ġgr anted
E d
B ecause
ĠCont in
st ar
O ff
ĠPar liament
Ġcompl icated
Ġaud io
Ġch ances
Ġext ract
ĠG i
Ġ199 9
Ġhe l
ĠE duc
er a
Ġsh ares
Ġsuccess fully
ry pt
es y
.... ....
Ġpil ot
ĠI T
ĠE p
ĠH ot
Ġmy th
Ġrec overy
ĠT est
Ġtechn iques
Ġ iron
ĠC are
ĠZ eal
ĠS C
Ġscen es
ĠF re
Ġveter an
ĠW in
Ġ( $
Ġdeg rees
act ions
k ed
Ġsym pt
the w
Ġlaw makers
Ġw estern
Ġoper ate
Ġad s
r ating
Ġha bit
re p
Ġaim ed
In st
e z
anche ster
Ġph r
re te
Ġtast e
id ency
Ġeng aged
Ġpriv ile
Ġ5 5
==== ====
Ġr ating
Ġteach ing
ĠO s
Ġacadem ic
it ar
Ġthe rap
Ġpass es
Ġdoll ar
he nt
Ġautom atically
ĠPac ific
Ġmon it
Ġbl ocks
ab ama
Ġatt ended
Ġperman ent
Ġsurv ive
Ġant icip
Ġen able
ĠL ook
Ġext rem
u an
ĠFore ign
ch ain
% .
Ġmark ed
it als
Ġh idden
Ġacc omp
Ġtit les
ĠSen ator
ĠN BC
Ġt aught
a ed
ĠLin ux
Ġb om
Ġind ex
ever al
Ġel ite
ib ilities
Ġlawy ers
Ġdep ending
f rom
Ġval uable
Ġinst alled
Ġch ampionship
Ġro ot
Ġcomp re
m al
ĠB ull
Ġdownt own
Ġequival ent
Ġsol ve
r ific
Ġd uty
ĠSpe cial
ĠB usiness
Ġ6 4
Ġp ace
H S
Ġreput ation
Ġun certain
Ġph ones
Ġover se
u ine
b al
ĠT aylor
Ġperson nel
Ġp in
re ams
atur ally
Ġsuff icient
Ġvis ited
Ġwar ming
Ġprin ciples
Ġvulner able
Ġenjoy ed
Ġf ake
ĠN ick
Ġadv is
Ġnegoti ations
ind er
Ġgener ated
Ġexp osure
Ġrec ording
Ġcollect ed
Ġregard less
Ġd ict
E A
Ġbit coin
Ġe lev
ã Ģ
act ive
ĠK elly
ĠAn th
Ġc up
Ġpattern s
Get ty
ĠT ake
) )
ĠA venue
ĠJ osh
Ġch at
b ro
Ġdis aster
Ġc able
M e
Ġ6 5
Ġwork er
Ġmain ly
Ġrac ial
qu arters
ĠCo ast
ĠV iet
mon th
Ġp ounds
Ġ1 50
ĠC all
Ġport ion
ĠA h
Ġaf raid
Ġins pir
Ġdef ence
Ġb es
ĠE astern
ĠT ony
Ġtrack s
d a
Ġbus y
Ġgr ant
Ġsh it
Ġint ense
ĠSer ies
ĠL GBT
or ne
ĠSt ill
ath y
Ġfun ny
y e
Ġap olog
Ġsur gery
ĠMos cow
man n
ĠC oll
Ġposs ession
Ġprom inent
ĠM ars
Ġcom ic
ĠG er
as hes
9 7
ul es
ĠR ay
Ġth in
Ġengine ering
Ġtrou b
ĠK urd
th is
Ġprocess es
ĠN ation
ĠK ent
f all
ĠC ome
Ġent it
Ġ âĢĻ
Ġunus ual
rap h
et ary
Ġdescrib es
C ol
w orld
ll a
9 6
Ġresult ed
Ġemer ged
Ġtax p
Ġg all
il er
Ġd im
Ġprop ag
ĠI owa
ĠO regon
Ġco ordin
Ġcor ruption
Ġst ations
ĠIn vest
Ġf ought
ĠA D
Ġbr ut
Ġext ension
Ġbl ind
Ġadop ted
pr ise
Ġcompet e
Ġrec ru
t es
ĠZeal and
Ġhad n
P r
Ġ4 00
Ġm ail
Ġevery where
ĠB alt
re f
ĠH om
b a
R ec
Ġcry pt
M ean
he rent
ic ate
ĠA li
Ġcontract s
f ront
Ġne uro
ĠL o
ĠDe ad
ĠR ick
Ġfeel ings
Ġf irms
idel ines
âĢĻ ,
Ġminor ity
Ġsp r
c les
H A
Ġadvert ising
Ġrare ly
Ġdisc ipl
g un
m aking
ĠN orthern
Ġsan ctions
sc ape
ĠPhil adelphia
up id
Ġcamer as
Ġexpl icit
Ġstr ict
v iously
l og
Ġen orm
Ġfin ance
Ġc ited
if ies
ĠBe fore
Ġshort ly
ĠPol icy
U L
Ġexpect ations
Ġimplement ation
og en
Ġrec ip
ol t
cl ing
ĠGree k
Ġth ick
Ġthous and
ant ic
ĠM u
Ġl oud
ist ent
Ġaff ili
ur rent
or ough
ĠN avy
Ġin ev
c us
Ġphot ograph
Ġmed ium
az z
ĠW isconsin
Ġscen ario
ĠF ood
ĠL ive
Ġsu p
il ton
t est
Ġpl ug
Ġve get
ig en
Ġh o
C o
Ġvis ible
Ġlight s
L C
Ġcreat es
Ġprior ity
Ġv en
Ġbr idge
el and
ink ing
Ġob st
Ġag ric
AT E
Ġper mission
ĠF oot
Ġal gorith
iz on
Ġparticip ate
ask a
Ġw ing
wh o
as ion
Ġbrow ser
ĠPro te
ĠGl obal
Ġt ag
ĠO l
ĠH as
Ġm el
ĠAs h
Ġac celer
e lect
Ġdo zens
ĠKing dom
Ġhistor ic
Ġcomput ers
Ġla id
Ġbasket ball
Ġloss es
ĠS af
7 6
og ether
Ġun w
: :
Ġt or
ĠAm endment
M ar
Ġstrik es
Ġprinc iple
ĠDevelop ment
Ġform al
E P
5 4
Ġsc oring
ob s
at hered
Ġ4 4
Ġcoun sel
+ +
Ġsh ock
Ġwonder ful
ĠS P
Ġbeh alf
ab s
Ġun com
prof it
5 2
ent h
le te
Ġinter face
Ġestablish ment
Ġto ler
ĠHen ry
ĠG reg
am ber
c ar
ĠM ajor
ĠTh us
U s
Ġg ained
Ġfe e
j o
s he
Ġfound ed
et ime
Ġfound ation
5 1
ĠE SP
ili pp
Ġclub s
Ġcann abis
Ġj u
f ound
Ġair port
ĠKe y
y stem
Ġb orrow
ol is
we et
b ell
B O
Ġmanufact uring
Ġre ly
ĠH it
a us
ĠP ay
ĠAl abama
Ġgen uine
ĠR oyal
rat ors
Be fore
Ġcomp onent
Ġrid ic
ose xual
Ġwhe el
r ative
ĠO ak
Ġjournal ist
Ġrel ief
ĠS n
u er
Ġsa ved
Ġh ole
Ġy ield
Ġhead ed
Ġcy ber
ĠM oh
epend ent
Ġg ift
Ġwithd raw
Ġf ault
Ġindic ate
Ġdraw ing
Ġun iform
um er
ĠR and
ĠV is
ar lier
Ġst able
Ġsh ips
Ġ- >
Ġban ned
Ġmag n
ĠM id
Ġfoot age
Mean while
rou s
Ġdo ors
an ing
Ġrecogn ized
Ġ19 60
Ġcont aining
p read
ĠF C
Ġr iver
am i
Ġstrugg ling
S ub
Ġsp ark
ĠAcadem y
Ġwall s
Ġachie ved
op her
oun ced
Ġneigh b
l an
Ġpl ate
Ġed ition
te en
ĠH T
port ion
m ate
Ġmove ments
Ġdeli ber
u ce
P ost
Ġsh arp
ĠA S
ĠS now
ul ating
ĠTh ree
Ġepis odes
Ġneut ral
ĠPrem ier
ĠR et
ĠF und
Ġexcept ion
et ts
Ġprodu cer
________ ________
ĠF red
Ġdest ruction
Ġ199 8
ou red
Ġbelief s
Ġ4 7
ĠRe view
Ġleg end
Ġp ump
ĠMc G
Ġback ed
um in
Ġlik ed
Ġh ired
ides pread
c ription
Ġro les
Ġlangu ages
Ġprofess ion
Ġent ering
os a
ĠV R
Ġinterview s
Ġh ang
is p
ĠK ir
em an
Ġto x
Ġphilosoph y
ĠAdminist ration
Ġar range
o en
inte rest
Ġfl aw
Th ose
ĠN ob
sy lv
im ore
Ġst adium
ĠAtlant a
ĠJ ac
c a
Ġredu ction
Ġdin ner
Ġb ath
ĠRep ort
i el
j a
u per
ĠTurk ish
4 00
Ġa ver
Ġf inger
ĠN ote
ĠCon ference
Ġtack le
bur gh
Ġch a
Ġg onna
ĠDie go
ĠCent re
Ġc rop
Ġfarm ers
ĠM anchester
Ġnomine e
Ġ4 1
ere st
5 3
ach ing
ĠJ ason
Ġbare ly
AT O
Ġstruct ures
Ġcont ained
Ġsy nt
Ġdeli very
Ġconv in
ĠO tt
% ,
Ġprocess ing
Ġdisc rimination
Ġinc ent
ri ers
ĠF air
erv ed
R S
ĠD ata
t hen
ĠAr m
abin et
Ġintellect ual
ĠRad io
ams ung
Ġ4 6
ĠB ry
ĠO K
ĠF ield
ĠD id
Ġup set
ĠPer haps
ĠM ir
ĠEduc ation
sylv ania
aw ay
P resident
Ġchalleng ing
Ġpro ven
Ġrestrict ions
ri k
g ener
Ġfore ver
h ttps
h o
ol en
Ġelect ronic
Ġhit ting
ĠH ay
Ġe uro
Ġun ex
Ġreview s
ĠF ed
ĠChrist ians
Ġ4 3
ĠN C
Ġconv icted
p age
St ar
Ġill ness
Ġsm ooth
D av
ĠH or
Ġret ired
Ġindic ated
us ive
Ġprodu cing
ĠAb out
ĠHar ry
Ġrapid ly
Ġro se
Ġh ide
Ġcorpor ations
f r
Ġo cean
ĠR us
ĠP oint
ay ing
ow ing
Ġlist ening
ĠRe uters
ĠU FC
ĠS at
Ġtechn ique
Ġm o
y ard
sel s
Ġl oyal
ĠN ic
i y
less ly
Ġrob ot
Ġcl imb
Ġnot ion
Ġbeg un
8 7
Ġut il
Ġrecogn ition
Ġre n
ou ver
eng ers
Ġper pet
Ġassoci ation
Ġmil k
in f
Ġas ks
Ġwebs ites
Ġdesc ription
ĠP ack
Ġtick ets
ĠP en
ach us
Ġfl ash
Ġb ra
Ġsuggest ing
enn y
ĠJud ge
Ġexclus ive
Ġreach ing
Ġprep are
it i
ĠK ansas
ion e
Wh o
Ġb ail
Ġfr ag
Ġprogress ive
Ġb urd
Ġex ceed
Ġequ ally
ĠH ard
Ġhard ly
Ġw idespread
ĠA BC
Ġcampaign s
ĠMay or
Ġcont ribute
ud es
olog ists
Ġbr anch
L ook
ĠR ose
Ġgr ass
Ġiniti ative
ĠMark et
Ġeth nic
Ġex ternal
ik es
ĠC irc
um a
ri ent
Ġsens itive
Ġpract ical
ust ed
el f
Ġunc lear
Ġnorm ally
ĠInt ell
R ef
p at
Ġrepresent ative
l s
8 9
Ġwe lf
ĠF ull
th on
Ġredu cing
app y
Ġfriend ly
b ec
Ġcare fully
ĠArab ia
ĠR ef
l ad
ĠL y
P M
ĠL uc
Ġrac ist
Ġinv ent
r ical
ou ch
P G
ĠC O
Ġrespect ively
ĠNe xt
sen al
rat or
Ġt ail
im m
ĠMcC ain
ĠBern ie
anc ouver
Ġoverwhel ming
Ġview ers
ĠBe ach
Ġwelf are
arr ass
st ract
ĠF urther
Ġconvin ced
U N
Ġsm oke
um es
Ġcoll apse
Ġinvolve ment
ĠL ind
es ter
Ġth rown
pl oad
Ġconnect ions
he ast
Ġterror ists
ĠB attle
Ġstrateg ic
Ġh ook
Ġ 00
ĠLat in
Ġrec over
omet hing
igr ant
ĠO nt
Ġw ine
M c
ino is
ĠMus ic
ro lled
Ġmind s
Ġv ital
Ġsettle ment
Ġstat istics
Ġl ists
Ġv ary
ĠS ir
Ġfeat uring
ĠESP N
ec ut
ĠD ig
achus etts
Ġbehavi our
Ġindepend ence
w orth
Ġfant asy
Ġdev ast
ned y
c ore
ut ies
Ġinv ited
Ġcompl aints
Ġjo ining
d em
Ġscore s
Ġf iscal
Ġdeep er
ab il
ĠPenn sylvania
if est
Ġst eal
Ġan ger
Ġdep uty
Ġel ig
Ġw ars
ĠSqu are
ĠT enn
Ġinvestig ate
ĠT own
Ġsu gar
Ġconst itutional
ĠII I
Ġschol ars
ĠP it
Ġi OS
Ġany body
Ġsubject s
ĠA ND
Ġar ray
Ġal ien
F A
ĠU lt
ĠG ov
Ġl obby
Ġowners hip
Ġframe work
Ġunemploy ment
ĠDiv ision
Ġtrans gender
b n
Ġimprove ments
ĠS S
Ġmen u
Ġpe ak
B ack
Ġsc reens
ih ad
Ġin ject
Ġl uck
ivers ary
Ġdef ine
Ġt asks
ĠX box
Ġdem ocratic
Ġsc andal
ick ing
Ġj ury
ac on
ĠAnt on
C he
ĠMin istry
Ġc os
Ġcompre hens
ĠE s
os it
ĠK at
Ġrem em
Ġdisc overy
un ior
Ġreg ister
Ġcas ual
Ġcitiz en
R I
Ġf ab
U nder
Ġroad s
Ġdisag ree
Ġfail ing
ĠN ever
ĠL ittle
ĠJ ay
Ġdynam ic
Ġserv es
ĠCamer on
ĠBro ther
ĠM ah
Ġtest im
Ġg athered
ĠSt one
ĠIn formation
S m
Ġs oph
od ing
Ġimplement ed
Ġcontrovers y
Ġcollect ive
Ġtr ained
ann a
ĠN SA
Ġneigh bour
Ġfear s
level and
Ġsam ples
Ġf iction
Ġpro sec
Ġest imate
ĠCommun ity
6 9
ĠI ce
ĠMed ical
ag g
Ġ199 7
ĠPh ilipp
Ġrefer ring
Ġt ip
Ġcap tain
W ill
Ġ199 6
Ġsp aces
c ific
ar re
ĠWalk er
Ġvers us
Ġleg s
ĠSant a
' .
Ġtem porary
P C
Ġno ise
Ġs in
ĠH D
Ġincor por
Ġt one
Ġover t
Ġvisit ors
Ġre ven
Ġcivil ians
Ġw ages
Ġhyp ot
Ġrem arks
Ġaware ness
ĠO N
ĠSpr ing
Ġrecomm ended
Ġst upid
ĠAll en
Ġhead ing
Ġhand ful
Ġreg ulation
ick et
ĠA ction
ĠC ore
Ġplatform s
Ġacc us
ĠAnth ony
Ġaff airs
Ġtouch down
Ġr ural
Ġattack ing
e en
Ġext end
Ġult imate
Ġatt ached
ĠVe gas
Ġdiscuss ions
ĠR en
Ġhor se
m ad
ĠB rew
Ġrep rodu
Ġgen etic
Ġexpand ed
Ġattempt ing
ph ones
ĠMat thew
Ġr aces
inc luding
ir y
ĠQue en
Ġr aw
Ġign ore
ĠColumb ia
s erv
ĠP ent
ĠGuard ian
h our
ĠC ook
ition ally
Ġg ear
Ġi P
Ġsympt oms
ĠPat rick
Ġsuff er
Ġsett ings
ĠM ake
âĢĶâĢĶ âĢĶâĢĶ
all ing
Ġsal ary
c ase
Ġlic ens
m ary
G O
es h
Ġtweet ed
ang el
Ġpublic ation
Ġbr ill
Ġfact ory
Ġsuspect ed
Ġpurch ased
Ġinter vention
are t
Ġeas tern
Ġhol iday
ty pe
20 14
Ġthe at
Ab out
Ġdis pl
Ġrank ed
ĠB udd
Ġne ck
ĠAust in
ĠConserv ative
ĠM useum
ĠR oy
" )
Ġc ro
Ġenorm ous
S en
## ##
intend o
Ġc ogn
h an
Ġlog ic
ult ural
ict ions
Ġimprove ment
ĠAP I
Ġview ed
Ġing red
Ġentertain ment
A ss
Ġlegit imate
ĠProf essor
omm od
Ġpres um
ĠAl bert
ĠMass achusetts
ĠB all
Ġ201 9
Ġw ww
New s
Ġact ors
Ġsubstant ial
Ġhuman ity
Ġinvol ves
Ġres ource
ar ms
Ġbrother s
Ġliqu id
Ġr ational
Ġseem ingly
Ġs orry
Ġlay er
Ġlo ans
Ġro ok
Ġinvestig ating
Ġabs ence
Ġprov iders
Ġtom orrow
Ġfall en
Ġb ureau
Ġground s
Ġco aches
Ġst ake
Ġres ign
Ġout s
re c
Ġadvoc ates
Ġâ Ĥ¬
R C
Ġinvestig ators
Ġconspir acy
Ġmedic ine
Ġdram atic
W here
Ġf ulf
Ġmon itor
ĠCh air
re pre
ES T
Ġover s
Ġch apter
ĠSe ason
Ġc oc
ov al
G E
l ah
ĠH o
. -
ple te
Ġactiv ist
Ġbo at
p ed
ĠChe ck
ak a
ĠCont rol
Ġj ur
Ġsusp ended
Ġp apers
Sc ript
ĠGree ce
Ġopin ions
ĠS uch
ĠR oss
Ġmiss ile
ĠGold en
Ġcele b
ĠRev olution
20 16
Ġstay ed
Ġco vers
ĠHe ad
iver pool
Ġd iversity
oty pe
ĠR a
Ġb ars
P art
Ġg am
R uss
x it
Ġj e
Ġemb arrass
Ġoffic es
ĠA cc
our se
re ts
cl aim
ĠP ot
h ot
ĠIran ian
am med
Ġdis rupt
co ver
ĠW W
Ġpre ced
Ġpo ly
Ġfore st
we red
Ġcare ful
ĠA p
m at
repre ne
v ard
Ġam id
ĠHist ory
7 9
ĠH ospital
ist ing
ĠA le
Ġaut hent
qu est
ĠIll inois
ĠC BS
ĠS ony
u ction
Ġh am
ge on
Rel ated
d it
7 4
7 2
r ine
Ġtransport ation
ĠV ancouver
ĠG aza
Ġhand ed
Ġprot ocol
Ġconsist ently
Ġmount ain
Ġ5 2
Ġread s
ĠSt at
Ġpre f
Ġclot hes
ĠP o
Ġatt itude
i ability
ect ion
ĠSh are
ĠKen nedy
Ġp orn
Ġprinc ip
ĠF reedom
Ġdep ends
Ġmin ing
Ġpet ition
Ġnot ing
Ġwar rant
Ġcon ce
d es
Ġcol ors
Ġlow est
ĠAnd erson
Ġaddress ed
ĠT ri
ĠF amily
b i
un es
Ġent r
ĠSt adium
x x
Ġthrow ing
Ġvirt ually
Ġf ruit
! )
Ġst one
Ġf oss
ĠMe an
in ch
Ġguarant ee
Ġrefere nd
B oth
? ?
Ġspeak s
ĠBalt imore
Ġste el
Ġcl osing
Ġread er
F F
d ri
Ġbu ff
Ġperson ality
ĠC re
Ġappreci ate
ĠIraq i
Ġsur f
ĠEn vironment
Ġn erv
ien ces
m aker
Ġk m
ke ep
Ġhand ling
Ġprof its
ord on
Ġg rav
Ġmar ks
Ġtri es
l ow
ĠBro ad
Ġcontribut ions
ĠEng ine
rop ri
z ed
Ġspirit ual
Ġconvers ations
Ġfant astic
ĠT ro
Ġl ands
Ġcon sole
il a
Ġhor ror
pp ers
" .[
ic ity
Ġg ains
Ġcover ing
Ġte a
iv als
ĠHar ris
H er
Ġast ron
Ġh int
av al
Ġshould er
sc ale
Ġw rest
Ġgu est
ĠE xt
ĠB ad
Ġacc ommod
ut ed
u its
Ġdep ression
ĠC A
Ġ _
ĠLew is
Ġl ucky
ĠB ang
Ġencour aged
fl ix
am ac
Ġjud ges
Ġinc idents
ĠC leveland
Ġd rew
Ġsubsequ ent
ir a
Ġsp oken
ĠHow ard
ann els
Ġbro wn
Ġb acter
P lease
ix ed
Ġr het
Ġr anks
ĠGet ty
Ġphot ograp
Ġinfl ation
Ġin ner
ĠIntell igence
it ting
ĠB a
Ġm aps
ab eth
ĠPat ri
port ed
ij ing
pl ate
Ġdiv ided
Ġ199 5
ĠN ATO
**** ****
Ġpar alle
Ġdr ama
ĠMex ican
Ġdist ributed
Ġg al
Ġinnov ation
Ġsw ing
un icip
Ġc ust
ĠUn fortunately
Ġprem ium
Ġvot er
Ġper mit
Ġre vel
ĠK ong
Ġtre m
Ġd ance
Ġcl im
pl ed
ĠL as
Ġeff iciency
Ġprom ises
ĠInd eed
N ote
ed ing
ĠC H
ĠWh ich
Ġball ot
Ġ5 1
p ie
Ġtemper atures
ĠS amsung
Ġport ray
Ġspokes person
Ġl ocked
Ġl ying
Ġimpro ving
Ġth rew
Ġj oy
Ġd ump
Ġmus ical
P P
Ġmist akes
Ar t
d ated
Ġsh out
ĠSt art
Ġhom eless
con f
er ies
Ġreplace ment
Ġcom edy
Ġche cks
ĠWith out
ĠM oon
Ġinstru ment
oun ce
ĠCon nect
Ġacknowled ged
Ġbar rel
Ġrespons es
Ġprotect ing
back s
ĠD et
Â Ĵ
Ġsil ver
Ġcop ies
he im
Ġl es
ĠA C
Ġd ad
Ġbreak s
ĠPl us
ĠB uff
Ġcommon ly
Ġle ts
Ġleg acy
it age
Ġprote in
Ġmat hem
Ġjo ke
amac are
er ted
h op
Ġpass engers
20 15
Ġy ellow
ĠMar vel
Ġn aturally
Y our
ĠS cient
Ġnom ination
S ource
Ġmeas ured
ap ing
od ed
al ia
ĠU se
Ġabandon ed
Ġm ad
ĠPr ince
Ġstud ied
8 00
ĠFoot ball
hel sea
Ġd iverse
Ġr om
arg o
Ġacqu ired
iet ies
ĠL yn
C ons
ĠM arsh
Ġso il
Ġdemonst rated
Ġbl ast
Ġre ar
Ġfund ed
Ġhead quarters
hes is
est y
y o
Ġst olen
Ġsc an
Ġcount s
Ġt ape
Ġpartners hip
Ġmid field
ĠN OT
Ġ( âĢľ
Ġupgr ade
ĠC ost
ĠAtlant ic
y er
Ġm arch
Ġord inary
ĠA ud
ĠN ev
aw are
Ġliter ature
Ġpl ain
Ġst ages
ĠâĢ ¢
Ġass ert
Ġ199 4
h igh
ĠA I
Ġhelp ful
Ġarri ve
Ġex it
Ġsc ope
Ġfall s
6 3
d og
Ġign ored
B M
Ġtw enty
et ers
ĠM aster
Ġcl ock
Ġcom pe
in ction
Ġvir us
ĠT rib
Ġreferend um
Ġin equ
Ġun ions
ĠDo es
ass ador
ĠG un
Ġconserv atives
Ġr if
Ġgr id
Ġsy mp
Ġf estival
Ġf ro
Ġsho pping
Ġwat ers
ĠP op
Ġcap abilities
ĠB ron
Ġa x
lah oma
Ġus age
ĠH ind
i ate
z ing
ĠEm pire
aed a
ĠAb b
ing ton
ĠIndian a
ile y
Ġtrans actions
Ġhop ed
er g
Ġdist ract
Ġgu itar
ĠA st
V E
ĠE ag
ct ic
Ġst y
Ġr amp
Ġassess ment
Ġunivers ities
ĠD ave
Ġm oon
Ġmonit oring
orm al
ack et
br idge
Ġrepresent ing
F acebook
Ġrat io
ĠDe ath
en cing
6 2
ugh t
ĠPro v
Ġconvention al
com es
US T
or ge
Ġtr ave
K e
ĠS et
Ġtrack ing
d oor
nt il
ĠS ometimes
6 1
on ly
sh ire
Ġh ung
ĠS us
Ġrel iable
Ġt ie
Ġpropos als
Ġske pt
Ġrepl ied
ĠR os
f und
Ġcritic ized
u h
Ġappear ances
r imin
ecut ive
el a
Ġrac ism
Ġins isted
or gan
Ġintrodu ction
Ġ20 20
Ġappoint ed
d ney
ĠB ureau
ol ph
ag ic
ĠP ass
c ut
ĠL ine
Ġbeaut y
Ġconc rete
Ġrece iver
Ġsupp lies
Ġperform ing
m ade
j i
Ġb ub
Ġex ch
r ite
ĠHe ll
ĠH a
Ġvis iting
ĠTechn ology
ĠDen ver
oc ument
E E
om es
ĠC apt
the less
R L
Ġlet ting
AN D
Ġdef icit
Ġclass ified
ĠGal axy
Ġaut o
H T
Ġre nder
Ġabs or
ĠOr ig
Ġsw im
Ġaccompl ish
Ġprogram me
Ġpres idency
c rib
Ġblock ed
ĠSwed en
arch y
Ġd ust
ĠUt ah
Ġdro ve
Ġland scape
Ġcan ce
ĠPort land
pl us
Ġdismiss ed
ĠL A
Ġhy per
Ġab road
Ġbon us
ĠJ am
ĠT our
h ar
Ġsequ ence
Ġpredict ed
Ġsen ator
Â °
ĠA ge
Ġdom ain
ĠC ode
Ġe c
Ġm useum
Ġwar n
ĠAssoci ated
ac co
Ġpers ons
N S
Ġd ub
ian o
ag a
Ġrequest ed
Ġtrig ger
ĠOnt ario
Ġh ockey
ĠCor por
Ġart ific
Ġd ates
Ġtestim ony
Ġcent ers
Ð »
Ġrock et
ir ts
Ġv es
Ġtrans it
Ġcongress ional
Ġentit led
ult ane
Ġspokes woman
ĠFr ont
ĠN intendo
ĠAlex ander
Ġresc ue
ĠCo oper
m ony
Ġass ign
ĠB on
Ġequ ality
Ġp atch
Ġur ged
Ġb read
ĠOlymp ic
af e
Ġdocument ary
Ġveter ans
Ġcl ar
f ol
9 3
k ing
ĠâĢ Ŀ
a is
Ġrec all
Ġpop ulations
9 4
ĠL ow
Ġbreat h
St ill
9 2
pt on
room s
A re
Ġwhen ever
Ġviol ation
Ġtact ics
Ġw ider
7 1
ound ing
ĠK ar
Ġtarget ing
Y et
th rough
Ġpurs ue
Ġs alt
" >
iz abeth
Ġf iring
d on
C omp
ĠM ill
Ġac id
Ġm ole
in ating
Ġrestaur ants
Ġcomp are
7 3
f are
or ous
enn is
Ġw edd
ect ive
Ġemploy ed
ĠRober ts
Ġcont rad
ĠB ible
Ġpolit ically
Ġphr ase
Ġsatell ite
ĠC ro
Ġsurv ival
Ġretire ment
Ġbank ing
ĠF orm
Ġbrill iant
is ons
ĠG irl
at ar
Ġch annels
Ġser vers
ĠBe ijing
Ġsoc cer
tr ans
a ver
ĠM ach
the y
Ġintrodu ce
ĠJust in
Ġexper iments
ene z
Ġprison ers
ra pped
Ġc ig
ĠW H
j ud
Ġf ighter
6 00
Ġscient ist
O K
ĠY OU
usal em
ĠL ist
Ġsub mit
Ġappro ached
ĠA ward
Ġmonth ly
ĠL iverpool
Ġdesign s
Ġrepresent atives
Ġc ul
Ġtit led
ord inary
Ġqu ote
Ġpopular ity
ol ves
Ġab ilities
oen ix
ĠP D
Ġmembers hip
Ġinvestig ations
Ġfocus ing
p a
m ans
Ġb ab
Ġh osp
ĠBr idge
Th ough
ĠMary land
Ġsa ving
Ġr ush
ĠGovern or
Ġsh adow
ĠAd v
ou ri
b ow
ĠH ur
ĠB ase
Ġobject ive
ber ry
ĠT ed
em ed
er ts
eder ation
Ġm it
Ġpre par
Ġt ips
ĠW as
Ġpip eline
Dav id
Ġchild hood
ik a
Ġrat ings
Ġth orough
Ġent reprene
ent er
ĠV ill
ĠD utch
w as
bre ak
Ġact ively
ĠHar vard
ĠS om
Ġp ig
Ġdemand ing
Ġlo ose
ast y
ĠB ra
Ġunex pected
C O
Ġsm oking
Ġsm ell
Ġden y
Ġunivers al
Ġfore cast
Ġarg ues
Ġphenomen on
Ġoverse as
m ers
old s
Ġsett led
w alk
ĠBe ck
Ġgener ations
Ġweek ly
Ġch icken
Ġprep aring
Ġ9 5
Ġsmart phone
Ġprodu cers
Ġbut t
ĠP A
Ġlegisl ative
Ġanx iety
Ġdist urb
ĠH ave
Ġinnoc ent
min ute
ĠC lick
Ġmort g
Ġcelebr ate
D em
ik i
Ġprov ision
ĠU r
ĠD O
Ġke ys
d ed
Ġsh ame
Ġarg uing
ĠDes ign
he ld
Ġquestion ed
Ġfor cing
ĠC ow
ĠH op
omp son
ag h
â Ķ
Ġbroad er
Ġencoun ter
e le
Ġfl ags
S L
Ġf ool
Ġm ac
Ġ5 3
Ġdead ly
Ġf ur
8 4
Ġre verse
Ġwe igh
ĠEd ward
ĠAm ong
Ġt ens
Ġ ~
Ġm os
Ġwealth y
ĠOb amacare
Ġun pre
Ġmaintain ed
Ġsure ly
Ġsh ield
ĠPro p
ocol ate
ore t
Ġsecond ary
is a
av ed
S im
Ġsav ings
ir lf
Ġro of
Ġst ability
Ġcivil ian
Ġt ab
el son
Ä ĥ
ĠCar ter
Ġreve als
m ind
Ġal arm
Ġmin i
Ġann iversary
Ġs orts
o is
ĠA k
vern ment
E l
Ġton ight
Ġrele ases
Ġroom s
ĠH on
irlf riend
is k
ĠG ulf
Ġout rage
Ġprosecut ors
ĠLe ft
Ġdis order
in als
Ġex ha
or ious
Ġsh r
Ġrel ax
Ġwind ows
Ġthreat ening
Ġdifferent ly
Ġharass ment
Ġqu oted
Ġhealth care
Ġsub mitted
Ġar bit
Ġl unch
st ep
it ter
ĠR un
Ġreform s
Ġtort ure
re ction
Ġf ate
Ġst ored
Ġo kay
ĠBel g
Ġpropag anda
Ġsp ots
Ġinstruct ions
ĠViet nam
Ġse vent
Ġround s
Ġodd s
Ġ199 2
ig ent
Ġa er
ht ml
ten ance
Ġer rors
a a
ĠOk lahoma
Ġhy dro
ic ism
G A
Ġde lic
ail ed
ĠLiber al
Ġsil ence
ĠGra ham
act s
ĠWar ren
Ġgrad uate
ĠS ab
Ġafford able
Ġcirc le
se ct
ĠBl oom
o z
Ġcooper ation
Ġp icks
Ġse ar
it ary
ĠSar ah
ĠF all
ors hip
ĠEx pl
Ġstrik ing
Ġp uzz
Ġpers u
Ġstre aming
Ġcomprehens ive
r ace
Ġimportant ly
Ġc ow
Ġposs ess
W atch
Ġf ing
Ġexec ution
ĠRub y
l ined
row s
Ġint im
Ġstrugg led
ĠP erson
Ġass ass
ĠSil ver
ĠLe ader
ut en
ah u
Ġg ent
T y
ĠPr ice
Re uters
ish op
Ġdes erve
ĠJer usalem
Ġland ing
Ġcal m
Ġal ter
Ġh al
Ġcere mony
Ġassum ed
Ġdemonst rate
Ġdifficult y
8 3
Ġag es
Ġpr on
Ġd ying
Ġdist ingu
as ury
et he
Ġste pped
Ġb orders
Ġche st
ĠW olf
ĠL t
Ġadv enture
Ġpoint ing
ov a
Ġw aves
Ġkil omet
es see
ier ce
ĠNet flix
ater n
Ġaut onom
Ġprecise ly
Ġarchitect ure
Ġgreat ly
Ġprom ising
Ġcons ent
e als
ĠDe b
b ury
Ġconsider ation
ĠT en
Ġdri ves
Ġdial ogue
ĠM ain
Ġtrem end
ĠB ud
as ant
Ġnewslet ter
Ġrook ie
Ġaward ed
ĠMean while
a fter
Ġrepe at
ĠSt ory
Ġcont ribution
ĠTe le
Ġb urning
ie v
part y
Ġsim ultane
ĠScott ish
ĠV ice
ak h
Ġdon ations
ĠInd ust
Ġinter f
it ol
ĠMag ic
Ġvo ices
Ġanaly st
ĠBru ce
ĠTe ch
cept ions
Ġg if
Ġfrequ ency
ĠComm on
Ġproced ure
Ġwant ing
ĠP res
Ġexecut ives
Ġplayoff s
le e
o ice
Ġstay ing
ap olis
Ġb irds
Ġbi as
V D
ĠH ong
ĠA z
iz er
Ġinc hes
Ġtr illion
om y
hold ers
Ġhighlight s
Ġsem i
Ġremark able
Ġwhere as
E X
rib utes
ĠPalestin ians
Ġkn ee
op en
Ġan s
ĠJon athan
scrib e
Ġimpl ications
Ġform ation
Ġsuper ior
Ġstrateg ies
ra ig
it ual
ĠBer lin
ĠL ink
d iv
ĠSy dney
st al
ĠM ORE
Ġcateg ories
ĠAr k
Ġf et
Ġfollow ers
Ġcre am
St ory
port ation
F O
Ġcontact ed
M s
Ġjud gment
ann on
Ġsm ile
Ġinf o
Ġemer ging
ig ious
r if
j s
ond er
om ed
y es
b ered
v ision
ĠE ff
vertise ments
iff s
h att
Ġaccess ible
v an
Ġcr imin
T P
Ġphys ically
Ġass igned
Ġ5 4
ĠAnd re
Ġgu idelines
Ġdefe ated
Ġw ounded
Ġtri als
Ġst em
Ġman aging
Ġspe ll
Ġmin istry
Ġgr ade
Ġco inc
Ġr iding
Ġindic ates
Ġcent uries
Ch rist
c est
ĠAff airs
Ġop ens
ak i
Ġph arm
- >
Ġmeaning ful
Ġt iss
ĠMr s
Ġe ase
ch ild
Ġmarg in
ĠSt ore
Ġclot hing
Ġâ ĪĴ
ĠT es
ĠS ix
ĠCap ital
Ġparticip ation
ced ented
ere nt
M us
Ġre vers
ar ia
Ġpo ison
ĠBre xit
Ġ1 20
ĠY emen
Ġl apt
Ġcompet ing
Ġmem ories
ĠC S
Ġthe ories
Ġrec ipe
Ġg ross
um ble
a uthor
h ard
9 1
Ġpass age
s l
Ġag ed
ĠC redit
Ġb in
Ġdr one
Ġbl ank
Ġdisp ute
Ġdam aged
Ġ199 3
ĠHam ilton
b ase
Ġsubst ance
Ġhost ed
T ER
Go ogle
ĠC helsea
Ġpromot ing
ĠL am
Ġfac ilit
Ġopen ly
ĠInst agram
Ġ19 50
ĠV ik
V iew
ĠChild ren
ĠCr ime
Ġclin ical
O ut
Ġn ic
e ven
ere my
ĠH old
b its
Ġinvest ments
Ġcons ensus
ig ate
ĠLe on
ĠF al
s es
Ġeduc ational
it o
con st
Ġdis h
Ġman ifest
Ġcust ody
we ek
8 2
Ġelig ible
ĠHaw ai
Ġleg ally
Ġmiss ions
Ġend orse
Ġg ate
Ġmem o
er ia
ĠG T
Ġt ables
ĠP ict
Ġn in
Ġstud ying
H z
Ġ ?
Ġchar ity
ar ation
ad i
Ġaddress es
Ġins pect
Ġdisc ount
ri x
le ft
Ġbatt les
AL L
P re
ĠD er
Ġ2 50
ĠAs sembly
Ġathlet es
ĠTr ade
Ġfoss il
Ġenthus i
i ac
ĠMan agement
Ġsuspect s
Ġt ired
Ġhe lic
A ct
Ġcounter part
Ġn a
ac hel
Ġd ating
ĠE th
Ġspect rum
ĠM etro
ater al
ĠSt ation
ĠB al
Ġpresent ation
Ġl ux
ge red
Ġbot tle
Ġt ap
ri ors
Ġfund ra
Ġenh ance
ass y
ĠSe an
Ġtherap y
ĠW ales
ĠEx per
Ġper ceived
mark et
ĠT ok
Ġv ig
Ġdomin ant
D ef
m ath
Ġback ing
ĠF estival
Ġunder lying
Ġdef ending
ĠTh rough
Ġrac ing
Ġdiscuss ing
Ġburd en
Ġexpand ing
Ġmus cle
Ġstop s
u z
Ġbe ings
ĠMar x
ĠE qu
Ġtrans action
ĠU ber
Ġ9 9
C al
Ġrec ruit
it udes
ac her
ĠG ary
Ġm ood
Ġpick ing
8 1
land o
yl um
play er
Ġman agers
or able
Ġgather ing
Ġhop efully
ang le
ĠS on
al ysis
ĠV ideo
se ction
Ġcr us
ĠLib ya
Ġimp ression
Ġh ip
ol ar
Ã ¢
Ġscr ut
Ġro y
ĠT ai
igen ous
Ġinst itution
ĠBat man
} }
Ġst ere
ĠB oe
Ġproced ures
Ã ±
Ġp ocket
Ġcreat ures
s a
Ġcomp at
Ġarri val
pt ions
w atch
Ġe ager
Ġpoll ution
it ure
Ġkit chen
Ġfood s
oc ial
Ġrec re
Ġsurv iv
ro ph
Ġorgan ic
ĠPent agon
ĠMor gan
Ġsh ipping
Ġcapital ism
Ġtim ing
s ub
od ox
Ġins ult
Ġrequire ment
Ġunf air
ad ers
Ġ5 6
ĠO p
Ġm ice
ĠAss ad
R em
ĠRep resent
ĠM ess
ĠML S
b ing
ative ly
ĠEl izabeth
Ġdise ases
M od
Ġindust ries
ĠH art
ĠOak land
d y
Ġb owl
ol n
ĠMur ray
ĠC reat
Ġs ed
Ġhelic op
Ġdiv or
ag ger
Ġbe ach
Ġpunish ment
ab et
r ac
Ġshe ll
** *
Ġfl ed
Ġhosp itals
miss ions
re ll
Ġt ons
A F
ĠK ick
Ġse ed
og y
ĠCome y
opy right
Ġstat ist
Ġengine ers
Ġob sc
Ġh ire
S C
Ġmod ule
A Y
am ous
Ġcoach ing
oc a
Ġans wered
T R
Ġgraph ics
Ġregul atory
Ġso vere
Ġst ance
alt ies
Ġb ow
ĠKe ep
C lick
Ġexpl aining
Ġrhet oric
Ġbe ating
ĠF riend
Ġt ut
ĠEm ail
ri or
ĠY eah
em ic
Ġacknow ledge
ĠMic hel
ĠM it
Ġprincip al
Ġpull ing
erv es
G e
Ġsign ature
br id
ol ving
Ġconv ince
ĠR oll
Ġvar iable
cos ystem
Ġp ill
Ġsearch ing
ĠO x
Ġd ies
Ġover come
Ġprefer red
du ction
Ġsix th
Ġadv iser
ĠTenn essee
Ġtrend s
Ġ !
ĠRus sell
Ġ( "
ĠTh ompson
Ġmer ch
Ġreb els
Ġinter action
Ġperiod s
ĠY an
Ġpsych ological
M ich
ĠS ure
ĠUs ing
Ġeconom ics
ĠCharl ie
ĠB i
Ġout lets
ĠG il
ĠInt el
Ġsign als
Ġe cho
ĠEx ecutive
ĠKent ucky
Ġtem por
Ġbill ions
p g
Ġline up
Ġm ath
ĠZ e
20 13
Ġ199 1
Ġset up
Ġre nd
F inally
net ic
m ic
Ġegg s
Ġse gment
ke e
Ġar r
Ġbad ly
ĠL i
Ġsent enced
Ġevery day
ĠDr agon
Ġcommand er
ĠH oll
ĠA N
d s
Ġl oves
unicip al
Ġgen es
w ill
N BC
Ġb old
Ġrequ iring
Ġbul let
Ġinv asion
C omm
Ġpart ly
Ġesc al
Ġinst ant
Ġg ig
che ck
ĠJ ean
Ġg ene
Ġar ts
Ġrem oval
Ġunder t
Ġu pload
li est
Ġtop ics
ĠI ron
enez uel
Ġinqu iry
Ġam endment
Ġweak ness
ĠR ather
new s
Ġconcept s
h as
P L
Ġsh oes
ĠS ound
gr ade
ĠMc K
Ġfab ric
iz za
E arlier
ĠDel hi
ts burgh
Ġfrequ ent
Ġse ctions
v ia
Re g
Ġocc urs
ol i
Ġm igrants
Ġcompens ation
Ġengine er
en ess
u i
Ġl ad
ĠF inally
Ġf o
Ġattract ive
ĠB ox
Ġun ve
in stein
Ġ ).
Ġc iting
Ġtwe ets
Ġut ility
aren cy
c or
Ġpost ing
Ġridic ulous
Ġblock chain
Ġcl er
ĠCl ark
Ġspeak er
âĶ Ģ
Ġdi am
g us
Ø §
Ġcor rupt
Ġtal ented
Ġle ct
Ġcoll aps
Ġm ask
âĢ Ĳ
ne cess
sc reen
Ġnot able
ĠThere fore
Ġe lder
Ġgen re
Ġdead line
Ġro lling
Ġcar ries
ĠB M
T op
ĠF inal
ĠE T
ent al
Ġappro aches
Ġelimin ate
ĠPri v
Ġanaly sts
Ġs its
Ġc ens
St ate
Ġinst ances
ĠSim on
Ġpubl ishing
Ġunpre cedented
Ġcol our
Ġro ots
ĠPh oenix
V P
Ġc ock
Ġb ene
ĠP sych
Ġtox ic
ĠHe art
Ġcollabor ation
Ġar c
Ġinequ ality
Ġneighb ors
Ġins ight
Ġdram atically
ĠHar per
Ġhom osexual
Ġpri ze
Ġtown s
Ġextra ordinary
Ġper ception
ĠG ordon
ĠWhe ther
ĠPh ill
Ġpar ad
Ġg est
arg et
Ġmain tenance
ows ki
row ing
ĠG O
Ġche aper
ĠG ro
is dom
Ġassoci ate
Ġcou p
M ark
ĠE vent
Ġshe et
ĠB ow
est ed
ĠBel ow
ĠS av
p ack
ĠCap tain
Ġcogn itive
Ġencour aging
Ġd reams
ĠP ers
Ġse ized
Ġinterview ed
Ġdeploy ed
Ġviol ations
Ġcamp s
Ġcom ics
Ġconstit u
ĠRe agan
Ġreserv ed
Ġbu ck
Ġemploy ers
Ġaim s
at us
Ġfunction al
Ġmyster y
Ġdisplay ed
P aul
ib an
Ġsp an
Ġlo op
Ġde light
ap ore
c re
A B
Ġtr aged
ĠEconom ic
ixt ure
Ġ5 7
ric ane
Ġgl ad
Ġoccas ionally
Ġv end
ĠS a
Ġex port
T ON
Ġbirth day
g al
Ġhero es
Ġfat al
est yle
og a
Ġcorrect ly
Ġprompt ed
w a
Ġst amp
el le
ĠCo le
Ġcontem porary
ĠA ccess
ĠJ enn
Ġprospect s
ot ing
v i
end ar
Ġir re
Ġrecommend ations
m ir
Ġdiplom atic
on z
th rop
igh th
Ġbe ll
Ġp a
Ġparalle l
Ġexc lud
el ing
Ġconst itution
Ġdisappoint ed
Ġmanufacture rs
Ġad equ
Ġint r
ĠSt aff
Ġmoder ate
ĠE ver
ĠD og
Ġe cosystem
Ġaccomp an
T ime
Ġdemand ed
Ġ8 5
ĠG DP
ĠPhot os
Ġn ose
ĠMont real
ĠD ick
ail able
Ġinter pre
Ġple ased
20 17
Ġlab our
Ġlif etime
ĠBrook lyn
ĠT ax
ĠE st
ĠRes erve
ro ck
Ġcommunic ate
Ġfight s
Ġmod ified
Ġdr unk
ĠO cean
Ġs essions
Ġwedd ing
Ġkn ock
Ġexplos ion
ĠL ibrary
Ġbi ological
Ġland ed
Ġrep air
ĠE PA
Ġ5 8
ĠAuthor ity
Ġsub sc
Ġrepresent ation
ĠG iven
ĠB ol
Ġartific ial
2 50
le ans
f it
F i
Ġrel ation
Ġown s
ĠKh an
ix on
ĠAnton io
ĠDig ital
Ġl ift
ag en
Ġdesign er
Ġrec on
Th anks
Ġem p
Ġconscious ness
Ġkick ed
ĠOr der
Ġdef ender
Ġh anging
Ġless ons
h ist
Ġimp osed
Ġgu ests
Ġadop t
Ġan onymous
ĠB ul
1 50
Ġs li
Ġconcer ning
w ind
Ġpregn ant
ĠF ive
inc oln
Ġunder ground
w ed
ac re
Ġmaintain ing
Ġass et
ĠAl an
Ġp unch
ĠR ome
ol s
bour ne
Ġsh irt
Ġingred ients
Up date
Ġche ese
gr aph
is ition
ĠCh annel
ĠCon vention
Ġpod cast
Ġinter ior
ch ing
": "
Ġemot ions
h uman
ĠAr gent
Ġcou ples
Ġab stract
Ġless on
Ġcreat ure
Ġres olve
Ġsh ocked
Ġopp ose
W he
Ġsum mit
Ġperform ances
ĠS U
Ġvolunte ers
ĠB urn
D is
s ome
Ġsold ier
Ñ ĥ
Ġstim ul
Ġlog o
à ¤
app ropri
ist ant
Ġter r
Ġv ocal
b en
Ġacc um
w ich
Ġg irlfriend
ĠProte ction
ĠD ur
ult y
S E
Ġjump ed
Ġann oy
ĠP age
Ġj ihad
Ġm ile
Ġn urs
g ate
ĠL ear
us er
Ġmilit ants
ac les
Ġgu id
ĠF ant
ĠMiss ouri
Ġprofession als
G ener
( "
ĠAn na
ik h
Inst ead
Ġbut ter
ial s
Ġs wit
d r
Ġref ers
Ġdesk top
Ġtravel ing
Ġl ibr
g ets
Ġisol ated
Ġfor um
Ġadvoc ate
Ġexist ed
ĠL im
Ġopp osing
ĠCo al
Ġrec alled
âĢ¦ .
Ne xt
St ation
ĠC ase
ĠH an
Is rael
Ġ6 00
Ġintegr ation
Ġdescrib ing
Ġbox es
ĠJava Script
ĠOr leans
ear ly
Ġst ro
C D
ĠM ail
Ġmin imal
ĠH al
tain ment
Ġconf used
ĠC ustom
ĠS D
ump h
ab e
Ġpeace ful
Ġin herent
ro t
od ge
c al
Ġsurround ed
Ġ vert
own ed
ĠCap itol
hatt an
ĠH and
com mun
Ste p
Ġh oles
e xt
Ġme al
ĠR s
Ġ198 9
Ġintegr ity
ĠK now
ĠPlay er
Ġp m
ĠBar b
Ġinspir ation
Ġconfig uration
Ġs ne
ĠTr ust
he ro
ĠB an
ð Ł
Ġexp ense
Ġcred its
ĠN on
Ġsub ur
Ġelect oral
Ġide ology
Ġy ell
Ġsil ent
Ġd ual
ĠMar ine
ĠDo ctor
Ġst ack
Ġsusp ic
Ġbur ied
T E
ĠNev ada
i ens
Ã §
im ize
Ġdesper ate
ĠO cc
st arter
Ð º
Ġsc ream
Ġcl ip
Ġcho osing
Ġbom bs
Tr ans
ĠC B
Ġb ands
Ġteam mates
Ġfle et
ĠS H
Ġcon vert
t ra
Ġaccept able
ĠOr lando
ib l
Ġj er
ĠW right
Ġregist ration
G u
L ist
ĠPort ug
ĠHit ler
Ġbrut al
S U
aw ks
N et
ĠM ove
Ġsc ar
Ġan cest
ĠOn line
ĠAll iance
e lection
Ġsubscrib e
Ġstrugg les
Ġkey board
Ġmoment um
ĠLe ban
ĠAre a
ar o
Ġpromot ion
ĠAr senal
ĠV en
Ġev ident
F l
Ġqu it
h ire
f ather
N ame
Ġorgan isation
Ġwond ering
ĠInd ones
Ġclos est
m its
to o
Ġembr ace
ĠSte el
book s
ĠFollow ing
Ġrefuge e
ĠH amp
Ġte eth
AR T
Ġpro be
Ġut ter
Spe aking
che ll
Ġat he
ĠW ord
Ġoccas ional
Ġmon ster
str ong
Ġas sembly
Ġbank rupt
Ġref erences
Ġjournal ism
is d
Ġexp enses
Ġsubsequ ently
gr ad
ou b
st op
ok er
Ġpr ide
Ġgu ards
ĠM un
Ġinterpret ation
ĠV enezuel
Ġy eah
ï ¼
Ġl in
h r
G l
Ġrem oving
Ġor bit
ĠInd ependent
re tt
Ġprof ound
ĠW rit
ip edia
20 12
ĠPit tsburgh
Ġcomprom ise
Ġkn ife
Ġdistrict s
Ġexclus ively
Ġsurv ived
ĠS ource
Ġconsider able
Ġmathem at
Ġst ating
Ġeng aging
ĠC ould
Ġref use
Ġb ird
Ġcharacter istics
ĠMount ain
Ġl obb
ĠR aj
Ġjust ify
H P
Ġdom inated
Ġ7 2
Ġbrief ly
ĠN azi
b ound
ars on
ĠR est
Ġch ip
Ġmin isters
Ġpro st
Q L
Ġelect ron
re nd
Ġtremend ous
Ġcont rary
Ġsustain able
Sh are
Ġload ed
Ġfl our
Ġdisapp ear
Ġnerv ous
Ġg ri
Ġrout es
orne ys
Ġpro portion
Ġsoph istic
at tered
Ġexecut ed
oc ated
el ve
ĠD uke
ut ter
Ġas ylum
ĠEvery one
Ġgame play
Ġsex ually
in st
Th ank
He y
am ine
ot te
ĠB u
Ġp ir
Ġdon ors
Ġconf usion
ĠD ream
Ġrevolution ary
c ap
ĠA aron
ĠAnd y
ĠP ant
Ġcur ious
ĠTre asury
Ġh arsh
lim ited
li hood
inc ome
K E
Ġatt ending
Ġ8 00
ĠAd ams
im mer
ĠI M
Ã ¨
sec urity
U C
Ġspeak ers
Ã³ n
Ġc abinet
Ġnow here
ree k
ing e
Ġfle e
Ġv oid
Ġbr ands
Ġch ronic
Ġprint ed
ĠTes la
ĠSh ort
A g
Ġcharg ing
Ġeng ines
re ck
Ġphys ics
an im
ĠH aving
f unction
ur se
Ġconcer t
ĠA lp
sc ar
ĠSher iff
Ġout comes
ĠA ren
ĠOff icer
M AN
ubl ished
ol id
ĠM ult
Ġo rient
Ġmir ror
Ġstreng then
ĠG ib
ĠJ un
th ood
Ġfail s
Ġsp o
op t
Ġobs er
. ]
Ġcha os
Ġpass enger
ĠiP ad
ĠCur rent
Ġcrimin als
Ġf el
ĠSp ir
Ġstead y
ĠRob inson
R ed
7 00
ĠNet her
mer ce
ĠÂ ±
Ġrob ust
ĠC ON
ĠMan hattan
wh ite
I E
Ġend ors
Ġspec ulation
ĠCh ange
res hold
Ġcert ific
Ġde emed
ĠTal iban
Ġdro pping
Ġh iring
ĠN orm
ĠGi ants
ĠSing apore
Ġintegr ated
ĠPer ry
Ġpres ents
ĠT s
Ġav o
ĠB and
ĠF A
Ġguarant eed
app er
Ġf ert
Ġep ic
Ġle aked
ĠK ings
Ġpack ages
m ble
Ġple asure
B N
Ġsusp ension
Ġchalleng ed
Ġpack ed
g ood
Ġcheck ing
à ¸
Ġb its
Ġv it
Ġeng agement
Ġrad iation
Ġsl ot
Ġbomb ing
Ġpat ri
le ep
ĠH u
Ġal ert
Ġd a
P al
ist le
Ġw et
r ics
Ġhun ting
ĠUS B
ĠT el
ri v
Ä ģ
ÃĥÃĤÃĥÃĤ ÃĥÃĤÃĥÃĤ
Ġprodu ces
Ġwitness es
oph ob
ĠC raig
Ġedit orial
Ġdef ended
Ġrec overed
ĠH oly
Ġdevelop ments
Ġsimultane ously
Ġbo om
Ġbacter ia
ĠL og
Ġblock ing
R ight
ĠL ater
ment ed
Ġ5 9
Ġattract ed
Ġ6 6
Ġfig ured
ĠO pp
Ġcor rel
ĠH ung
Ġall iance
Ġresearc her
ast e
Ġtaxp ayers
ĠEnter tainment
ĠN one
Ġcap s
c ard
ĠJ eremy
ĠL es
Ġhost s
Ġc inem
Ġpat ent
ĠRuss ians
iz arre
Ġexam ine
AT CH
ĠF uture
Ġvari ables
ĠL incoln
if ier
Ġo xy
Ġem bed
---------------- ----------------
Ġj unior
lyn n
ate ful
Bl ack
ĠG h
ut er
on ed
ĠChair man
Ġpubl ish
ĠT ower
J P
Ġt ear
Ġ6 2
Ġmet h
g ly
Ġbre ast
ĠV lad
D R
Ġv ent
ĠPol and
ĠUkrain ian
ĠStud ies
ades h
gg ed
d ep
C ar
Ġen act
m ay
ĠD ak
Ġfl ights
om ic
Ġaccur acy
Ġfl av
ĠB or
ĠW i
Ġdist ribut
Ġl os
Ġimpact s
Ġsurprising ly
ĠK it
Ġsol o
Ġra ises
Ġburn ed
Ġr ic
ĠS ci
Ġang le
secut ive
ĠW ould
Ġev ac
ĠSte wart
Ġqual ified
Ġdecre ase
ĠC PU
v as
o ft
n ie
Ġev olved
Ġfl avor
olit ical
Ġun necess
b in
ac o
Ġas semb
ĠT otal
Ġintim id
im ir
Ġcourt esy
ĠO R
C or
ER E
Ġfing ers
ĠMP s
r ition
Ġproduct ive
Ġv oc
Ġbl amed
ethe less
ĠH IV
Ġdepend ent
Ġexpect ing
Ġtransfer red
ĠR angers
Ġen abled
Ġident ical
Ġvis its
Ġexpect s
Ġl ane
ĠG ill
d ict
Ġign or
Ġacc ord
ĠU b
ĠGr iff
n an
ter ror
is hers
B ook
Ġv enture
ĠC C
Ġb arg
B r
Ġsh ops
Ġdepart ure
ĠComm and
ie re
ĠMiss iss
T O
Ġkill er
Ġrepe al
Ġmotiv ated
Ġstri p
Ġrest ore
Ġagree ments
ĠD u
Ġconflic ts
Ġorgan is
th odox
Ġsc ared
Ġforg otten
ĠTh ink
id en
ick ed
ul se
Ġin her
Ġnation wide
ĠEd ition
b ian
Ġcy cl
Ġinflu enced
Ġcrit eria
ĠN i
ern and
Ġoccup ied
Ġanim ation
ĠB C
Ġtrail er
Ġrank ing
ĠP ope
ĠSh ould
ĠTh ings
Ġ `
Ġback s
ah oo
Ġtele phone
d f
Ġoccas ion
ab out
un ity
Ġanal ys
ĠRed dit
Ġfunction ality
Ġcheck ed
Ġconcent ration
ĠMod el
look ing
Ġhousehold s
l ink
Ġre ass
ond uct
Ġalgorith m
Ġcour age
ra h
ress ing
ĠSupp ort
Ġpromot ed
ĠH ug
Ġimp rison
ou p
am ents
Ġexplicit ly
Ġbat ter
i ar
le ted
Ġdes p
Ġbab ies
Ġt anks
Ġo ught
Ġst atic
ĠPro duct
Ġrele asing
Ġant ib
ĠPl ace
ri ke
Ġsub tle
For mer
art ed
IL L
Ġst ats
Ġb ases
Ġdo ct
l arge
u ating
G r
ag ine
Ġprivile ge
ĠJ erry
ĠMore over
ĠE nt
b at
ipp i
ĠWar ner
ĠN O
Ġmet ers
Ġentr ance
M B
Ġtow er
Ġinvestig ated
Th ree
Ġsen ators
z one
ĠC old
ĠCanad ians
Ġh ub
Ġw ise
Ġm art
Ġover l
Ġappl ies
Ġform ula
ĠStand ard
ĠE b
oll ar
ĠEgypt ian
ĠChrist opher
Ġinev itable
bre aking
Ġuncertain ty
Ġprov ider
act or
Ġpain ting
Ġcontin u
Ġmod est
Ġl ens
Ġinflu ential
Ġdest ination
ĠQue ens
Ġun re
ĠM ap
for ward
iz ations
Ġch ips
be ing
S upp
Ġall y
Ġinfect ion
Ġd imin
le ading
" ,"
ĠUn ivers
Ġj et
Ġsole ly
k es
Ġbel t
Ġsc rew
Ġin aug
Ġ6 3
Ġins ist
G ood
Y eah
ry ing
ĠT R
ĠN iger
Ġthe ft
u ccess
ĠM arg
Ġpolit ician
ĠAl aska
ant e
Ġtransp arency
ĠPlay Station
Ġinvest ed
g ov
Ġsing er
Ġimm une
ĠOtt awa
Ġprov isions
ist ance
ĠSt ock
t own
Ġhand led
Ġp y
o vers
Ġuncom fort
ĠJ ane
amp a
ĠOlymp ics
ĠLouis iana
Ġimp ressed
Ġin box
ĠO il
Ġoper ator
S D
ard o
unt u
ĠNether lands
Ġball s
E m
Ġt ent
il ation
Ġcol leg
Ġb ol
Ġsim ilarly
Ġlif estyle
off s
Ġhead lines
id al
com p
Ġbo ards
rif ice
n on
? )
ĠTre k
Ġdis abled
ĠK r
th ur
ix el
ĠStan ley
Ġoper ated
ol as
Ġregard ed
v ar
ĠTy pe
Ġlaunch ing
ĠS N
Ġrel uct
ĠEx p
ach ment
w all
D own
ĠM other
Ġphotograph s
Ġvol unt
s uch
Ġkid n
ĠD rug
? âĢĻ
Ġsa ke
c itation
Ġke en
Ġdet ention
tr ack
r c
Ġcon secutive
Ob ama
Ġg ym
in ite
ĠUn like
m illion
ig e
). [
ĠBl ood
Ġprosecut or
Ġfil ter
Ġprosec ution
ke ley
Ġsu ck
on ing
angu age
Ġconv iction
ut her
Ġearth qu
Ġle an
Ġro lled
Ġk iss
ĠT able
ar med
ist a
Ġin ex
ĠMod i
eral d
ĠCorpor ation
ĠCapt ion
t arian
ĠCor p
bit ious
Ġbul k
f irst
ĠHamp shire
Ġm ales
ĠF O
J o
ĠB ir
Ġt ears
Ġtraged y
Ġch ocolate
Ġm ouse
Ġpo et
Ġpres erve
ll or
Ġguid ance
ĠF ather
ĠBe ing
ĠSc he
Ġle ak
ĠPhilipp ines
B el
ĠFore st
ur ches
v o
Ġn u
ass ion
Ġb ags
ĠS everal
Ġrec k
bl ock
Ġdest ro
Ġexam ined
Ġsy nd
Ġaccept ing
Ġel abor
Ġmiss iles
Ġabs urd
r in
F urther
Ġbene ath
Ġne ur
Ġparticip ating
viron ments
Ġ1 000
ĠH ans
b es
Ġneighborhood s
ĠD a
uck er
ĠStan ford
Ġcompe lling
Ġreflect s
ĠW y
Ġcompl ained
Ġad ap
Ġb other
Ġcontro ller
Ġlux ury
ĠVictor ia
ĠEd it
ĠMar c
ĠCl oud
ĠGr ant
ĠM orm
l aim
Ġthe ater
ĠMar io
Ġen for
ĠN elson
Ġshel ter
st ra
boy s
Ġf er
ĠMedic are
spe ed
ĠT am
Ġf its
ĠMedic aid
Ġjur isd
m ons
ous es
Ġpost er
ust ing
Ġ< /
ĠK night
Ġcons ists
âĢĿ )
o pp
Ġp ose
Ġsignific ance
ĠFil m
Ġpo lling
Ġsto pping
friend ly
Ġoccas ions
Ġb one
ĠD E
ĠTok yo
ĠRub io
Ġwire less
Ġreal istic
Ġexc use
ay a
ĠL ocal
Am ong
ĠIm m
E ach
ĠV in
ĠC as
ĠCh ron
Ġt ension
Ġaccompan ied
Ġsee ks
ĠG ard
Ġback up
ot ion
Ġrese mb
Ġmand ate
ĠS port
Ġthe oret
ĠContin ue
or ate
Ġass ists
ell o
Ġposs ibilities
ĠW inter
ĠQu est
f ish
Ġbet a
Ġaccus ations
Ġadv ent
Ġcook ing
ia h
ĠC R
ĠP a
p ing
ĠCh ampions
ne g
ĠAb u
Ġsupposed ly
Ġin hab
ĠSnow den
Ġemphas is
Ġfin ishing
ĠD al
amb ling
Ġsust ained
Per haps
c at
ĠMal ays
Ġbeat en
ĠS EC
Ġb ump
ite ment
ĠP ear
ĠH ad
Ġd ressed
Ġa wards
Ġproject ed
ism s
ĠNot hing
Ġt orn
Ġinnov ative
ĠEvery thing
ĠM ind
Ġaffect s
âĶĢ âĶĢ
Ġpol ar
Ġprevent ing
Ġconstruct ed
ĠFl ash
ber y
Ġlong time
AT ION
th al
Follow ing
Ġf ed
ĠS ection
Ġfuck ing
Ġer u
Ġg arden
Ġ3 60
ĠAb d
I O
ĠOrgan ization
Ġspeed s
Ġoper ators
ĠSo ft
il st
Ġg ut
ĠFin ancial
Ġdr um
Ġman ual
Ġout standing
Ġpass word
Ġmortg age
ĠHam as
ĠK a
Ġent ity
c ott
Ġrec ession
ĠN ich
ĠPy thon
Ġw isdom
ĠN ature
Ġdocument ed
Ġtrad ed
Ġint rig
ĠSte am
un a
ĠI V
Ġg olf
ĠJim my
Ġoccup ation
ĠKurd ish
Ġold est
Ġf ut
Ġdocument ation
Ġfavour ite
io x
Ġpra ised
Ġresident ial
inc ial
Ġspot ted
Ġcop s
cent ury
B ar
ug by
Ġreven ues
ĠComm ons
ĠTh ird
Ġlay ers
Ġwal ks
olit an
ĠM A
Ġinteract ions
ĠPatri ots
Ġsur ge
ch arg
Ġb icy
Ġaw ful
Ġpan els
Ġthe r
Ġcalcul ated
Ġinf ant
Ġcirc uit
c ular
D C
Ġ6 7
Ġexperiment al
â Ĥ¬
r ons
Ġrenew able
Ġautom atic
ĠC L
Ġmyster ious
Ġd irty
any ahu
Ġtr ains
ĠL ad
ĠOther s
Ġth reshold
Ġt ale
ĠN ash
Ġ6 8
qu es
ĠK al
Ġdeal t
ĠR h
Ġreview ed
Ġ6 1
âĸ Ī
l ied
Ġpain ful
Ġgl obe
ĠC itiz
om er
ir s
M art
ĠTr ue
Ġco in
Ġtri ps
M on
ĠAir port
re qu
ect s
ĠWay ne
Ġcle ared
er r
Ġearn ings
~ ~
ard ed
Ġcross ed
B en
Ġadminist rative
Ġconven ient
Ġgraph ic
Ġr iders
ĠE mer
ĠN ik
Ġl ady
Ġliber ty
ĠF le
Ġr anging
Ġb izarre
Ġp our
Ġit er
ut o
ĠB ah
Ġhe s
for mer
Ġdispl ays
Ġicon ic
Ġen vironments
Ġrob ots
Ġmother s
Ch ina
Ġhost ing
Ġam bitious
Ġ198 8
ow der
sel ess
Ġdes ert
be at
Ġres erve
Ġsec ular
Ġsent iment
Ġpred ec
P s
ĠMc Donald
ur i
j amin
is ive
On ly
Ġconver ted
ĠCl imate
Ġtiss ue
I d
ĠMur phy
ĠL arry
ĠS in
Ġt um
ĠA FP
ĠF OR
Ġdrop s
ĠDe ep
sh ore
D id
Ġexplo it
ĠP i
ĠDe an
w ords
or i
ĠRed s
ĠSum mer
k ind
Ġcreat or
Ġres ort
c ount
Ġaddress ing
Ġan ch
ĠV ar
Ġs ons
Ġsafe ly
Ġh iding
Ġatt orneys
Ã ¥
Ġdevast ating
D E
EM ENT
t wo
Ġsp ray
Ġsleep ing
u ably
Ġcross ing
Ġp ension
ĠS ac
Ġrestrict ed
Ġarrest s
Ġw ore
Ġscrut iny
ĠP ir
IC E
u j
Ġunf ortunately
put er
Ġbur st
Ġlibr aries
Ġdepart ments
Ġmurd ered
Ġcompet itors
ĠD rive
Ġwh is
Ġal ign
p in
Ġcontain er
Ġavail ability
Ġnewslet ters
Ġfil ing
ĠSing h
k ward
Ġadop tion
ail ing
Ġnewsp apers
Ġm isc
at ter
o j
Ġproduct ivity
Ġto ss
b et
Ġre ign
Ġbuild s
ĠN S
ĠS E
Ġdisc rimin
Ġpregn ancy
cel ona
Ġover night
Ġindic ation
Ġappear ing
m ap
ph an
Ġpubl isher
Ġear ning
ight ing
ar ians
Ġcomb ine
Ġview ing
Ġd uties
AS H
oy d
ĠMan ning
Ġf ishing
Ġreflect ed
is ode
ari os
te ch
Ġuncomfort able
ĠMag azine
Ġt u
Ġreg ret
go vernment
Ġm unicipal
ĠFurther more
n amed
Che ck
ĠWh it
d ata
ĠT an
g ence
ĠN ative
d ev
Ġhor rible
ag u
b ably
Ġchemical s
Ġrel ie
Ġan onym
Ġc ave
o op
ac cept
Ġsepar ated
May be
u els
Ġsophistic ated
W orld
Ġr ivals
Ġre wards
ĠF ig
or ia
Ġv iable
Ġdes erves
Ġpr icing
Ġact ed
ĠPh ys
ĠWik i
Ġrel atives
Ġin du
ĠM and
Ġwin ners
Ġre cept
ĠMad rid
Ġsl ide
Ġprepar ation
vers ion
Ġequ ipped
Ġr itual
Ġlimit ations
ĠCh rome
ern el
ĠIn n
Ġ198 4
Ġcomplex ity
Ġamong st
ĠRon ald
Ġ= =
Ġmechanism s
Ġpe er
Ġcomm od
les h
Ġparam eters
ĠF ederation
Ġfire arms
Ġcar rier
Ġb ip
Ġto b
ĠN az
s ize
Ġsuggest ions
i ors
Ġdelay ed
ĠHT ML
Ġexpl oring
Ġme ets
win ning
Ġtou g
Ġ198 6
Ġco ord
ĠTai wan
Ġlight ing
Ġcur ve
ell er
Ġstart up
ĠColl ins
em it
Ġintell igent
Un fortunately
Ġg host
Ġcelebr ated
ĠMississ ippi
Ġab und
Ġce ase
are r
Ġinter ven
/ .
Ġquiet ly
Ġens uring
ĠP oll
ĠD omin
X X
AT ED
b urn
Ġreb el
ĠL uke
Ġnight s
Ġm m
qu er
Ġcollect ing
20 11
Ġtransl ation
Ġworld s
Ġdet ained
Ġor ange
ĠMcC on
prof ile
DA Y
Ġbe ef
Ġemploy er
ĠD VD
ĠLe vel
P at
ac ies
Ġrad ar
ĠS ex
Wh ite
Ġinstall ation
ĠBl ock
Ġdeliver ing
Ġdesign ated
Ġco ins
Mich ael
em in
Ġm igration
Ġdeb ates
Ġ) ;
TH E
od a
Ġpled ge
ĠMel bourne
Ġcat ast
ĠE C
Ġgr ants
Ġca ution
Ġoff season
Ġnot ably
R O
Ġbug s
Ġtable t
hy th
Ġthem es
u ates
ĠEx press
Ġw rap
n atural
Ġgold en
Ġdeleg ates
Ad vertisements
A tt
Ġcour ses
âĢ ³
Ġcount less
ĠD isc
ĠEag les
ĠB ab
Ġwitness ed
Ġgrad ually
ĠQue bec
al id
Ġcomm ands
ĠCub a
c ode
ĠCoal ition
ĠSm art
m id
ĠN a
Ġt ends
Ġviol ated
Ġmean while
Ġpsych iat
med ia
ĠO w
Ġdemonst ration
p ot
Ġdem o
ĠP od
ĠC rit
form ance
Ġcomment ary
wit zer
ĠSwed ish
Ġann ually
Ġfor b
Ġp ending
ond s
ĠE ve
ĠHe at
Ġobserv ations
Ġth ro
ĠN ap
or ical
ath on
ĠS aint
op les
ers ion
arent ly
ĠT oy
arm a
Ġremem bered
Ġf ires
Ġquestion ing
ren cies
Ġcor n
F S
f i
Ġlapt op
Ġver ify
ru p
Ġimp ose
Ġhighlight ed
Ġrepl acing
Ġse eds
ĠL ady
Ġcont ents
Ġh unt
Ġpre view
el come
M edia
Ġfrust ration
ĠMarsh all
Ġdiscipl ine
Ġpat rol
Ġsupp lement
Ġpoor ly
ond a
ude au
Ġcom ed
Ġgra ve
ĠPro gress
Ġpra ise
Ġt empt
ĠPe ace
ĠAr ts
Ġf urn
Ġbath room
ĠP el
pie ce
ra it
Ġact ress
Ġas pir
Ġhapp iness
ĠK y
Ġexpl oration
Ġgent le
ĠR ound
om ach
Ġcru el
ĠL ions
Ġst arter
out ing
ĠHun ter
Ġprevent ed
ĠBl ake
Ġch amber
found er
ĠL en
f ile
ĠW ard
Ġpr ayer
M in
Ġcult iv
ĠSt orm
Ġven ue
Ġper mitted
Ġinst antly
Ġoxy gen
ĠH uff
Ġalt ogether
W ar
ur ities
Rep ublic
Ġbond s
at al
Ġamb assador
ĠBe at
ĠMot or
. ),
Ġare na
ug s
Ġcon ced
ĠBer keley
Ġdisapp eared
Ġplan es
Ġ7 6
Ġtechn ological
st ring
sh ot
ier re
Ġsuggest ion
ĠRog er
ĠA y
Ġpart ially
Ġagric ulture
am an
anc hes
Ġun l
Ġd il
Ġdr inks
ĠCamp bell
ĠFer gus
fl ow
Ġs izes
g roup
T witter
Ġincor rect
Ġprotect ions
ĠF R
h ill
Ġfasc inating
ĠM as
oc ur
ĠEnvironment al
ĠH ann
ĠChristian ity
Ġvacc ine
ĠHawai i
ĠAdd itionally
Ġlog ical
Ġpar ks
ĠM uch
au cus
Ġsty les
Ġsupp orter
Ġhonest ly
Ġad j
Ġal ike
ĠL aur
appropri ate
ĠNC AA
Ġpro l
Ġtob acco
Ġmarg inal
Ġto ll
Ġsum mary
tt es
ĠG re
olog ically
ĠC ry
Ġfle w
ĠG ene
ĠKick starter
Ġadv ised
Ġheart s
Ġcomp r
Ġsing ing
Le aks
Ġw ound
The ir
Ġappoint ment
ĠQ ual
ĠFor ces
ĠCongress ional
Ġeth ics
Ġst unning
ĠJ en
es ides
Ġcap ability
ĠG ab
ĠMit chell
Ġtrans mission
Ġenter prise
ĠVlad imir
ct ive
Ġmet aph
ch ron
ĠSpe aker
Ġpros per
Ġp owered
ĠMan ager
Ġreact ions
ĠEd itor
b u
st art
Ġess ay
Ġelect rical
Ġc ous
pl ing
Ġst ressed
Ġha z
p y
ĠT odd
Ġfac ulty
Ġm akers
ĠCor ps
ĠAm b
Ġas h
ĠAren a
Ġce iling
Ġsk et
Ġder ived
ĠRe id
s k
l ast
Ġsevent h
ĠN ame
iv an
Ġmount ains
Ġceleb ration
Ġr ice
Ġpress ing
Ġarg uably
g ments
Ġdraft ed
Ġc rown
Ġdam n
lect ed
Ġdep os
Ġra id
ĠJ ess
F e
ĠOr ange
ĠR T
ĠU I
N T
ĠB enn
Ġend less
Ġtravel ed
Ġcompl ain
l as
U D
Ġdr ones
ĠS essions
ĠIm p
ĠCommission er
ĠOx ford
T IS
Ġin eff
ĠBr us
ĠR ow
Ġaw kward
Ġbu nd
g ary
ore r
witzer land
Ġapp lying
ĠWat son
Ġsac rifice
Ġaccompl ished
Ġshoot er
d am
( '
Ġbub ble
Ġwe aken
ult s
T ake
ĠF lynn
Ġep id
on ia
Ġmechan ics
Ġassum ption
augh ters
Ġadvoc acy
Ġc ats
im s
Ġhost ile
Ġbre ach
Ġreveal ing
B L
Ġrespect ive
Ġfr act
hand ed
en cer
Ġscr atch
H ave
st orm
ĠMod ern
S everal
at in
Ġexpert ise
ĠDak ota
Ġdev oted
Sec ond
h ol
at oes
ĠPark er
ĠInd ians
ĠB aker
b ie
Ġan arch
m are
Ġcirc les
Ġstrong est
ut t
ĠR ap
ĠCh all
writ ten
Ġfocus es
form ed
ip her
Ġsh ocking
Ġsw ord
ĠK as
Ġcal endar
ue z
Ġaud iences
Ġm ic
o ard
Ġl one
W S
Ġcitizens hip
Ġbuy ers
ag raph
Ġconfirm ation
ĠMedic ine
um ing
E ng
Ġtr ucks
Ġl ung
Ġpartic les
Ġfr ank
Ġacqu isition
Ġconclus ions
v ol
id th
Ġcomput ing
Ġsa uce
â Ħ
B re
ĠLaw rence
uer to
ll i
m atic
Ġunnecess ary
Ġdirect ors
D ata
Ġl yr
ĠD ate
Ġline back
Ġ7 00
act ory
Ġpen alties
t it
Ġdec or
it ate
h alf
Ġsp y
Ġlong est
G M
Ġrespond ing
ĠTem ple
li ver
v ious
20 10
n or
H ist
it ivity
and ed
ĠF ind
ĠB art
Ġbit ter
ĠE D
M en
b rew
Ġst ir
ĠRes p
ĠH us
oc us
by n
at re
Ġhistor ically
Ġent ities
ĠMor ris
Ġad vertisement
Ġinter rupt
ĠD or
Ġadd iction
Ġy ard
Ġbe ars
Ġpl acing
ĠY ang
m art
Ġcontribut ing
Ġbound aries
Ġg reet
Ġqual ify
ĠFergus on
st an
Ġunderstand s
Ġcomp osition
Ġd uration
? '
Ġquant um
j an
bor ne
ĠHot el
Ġconvers ion
um m
Ġsh ake
Ġfrust rated
Ù Ħ
Ġcoordin ator
ĠLeg isl
k m
Ġoper ates
M ed
Ġorient ation
Ġhack ing
z es
ĠSaf ety
ĠBar celona
P I
s ur
M M
Ġst un
Ġc am
In ter
G iven
ĠR oc
ĠRec ords
d i
Ġpri est
Ġfemin ist
le ments
ĠP rom
ĠHis pan
ac ular
ĠJac ob
B ig
Ġ198 7
and y
Ġdist ant
Ġmotiv ation
Ġfast est
ĠS ud
Ġt ar
mind ed
Ġgro cer
Ġpain ted
bo ards
Ġpop ul
ĠI an
S et
ĠNet anyahu
âĢ ĭ
out heast
Ġped est
f s
ĠF CC
lim inary
L a
con nect
Ġn ode
ĠR ain
IS T
Ġd ensity
ĠU C
PD ATE
Ġovers ight
Ġtun nel
Ġexperien cing
Ġcontro lling
Ġcount ies
Ġm ild
ĠR y
Ġsaf er
ĠH end
ĠS ong
Ġt ill
Ġv ague
Ġ197 9
Ġdiv ide
ĠF if
ĠSw iss
ĠB E
ab ling
Ġtrans formation
Ġdirect ions
ast ed
d ec
Ġrece ives
Ġsent ences
Ġimper ial
Â ·
Ġp or
F igure
Ġu gly
le ton
Ġsl a
Ġsup rem
Ġilleg ally
com ed
Ġprob ability
ac er
Ġint ensity
Ġcomp osed
E uro
Ġenjoy ing
ĠC os
ĠAbb ott
w estern
Ġhe aven
Ġd ign
s upp
ĠS ide
Ġmand atory
spe cific
AC K
Ġconserv ation
Ġachieve ment
Ġg aining
ĠRem ember
ĠBloom berg
Ġins ane
ry ption
P ar
ĠAgain st
Ġagric ultural
d ing
Ġbal anced
Ġ6 9
Ġcondem ned
Ġst omach
Ġ198 5
Ġres idence
Ġdist inction
ĠL ie
Ġprint ing
ĠBl u
Ġp ione
Ġemer ge
Ġprot otype
ĠB eng
ĠC a
ĠBl og
Ġw ings
he alth
Ġspace craft
m other
Ġinvest ing
Â Ķ
Ġaccept ance
Ġ7 7
Ġtou ched
ĠR ice
Ġt une
Ġz omb
H ar
Ġto ile
ĠTe a
Ġiniti atives
ĠB uilding
Ġexch anges
oty pes
Ġsc ary
Ġp ays
ay ed
g t
m ain
ĠD J
Ġide ological
Ġp ink
or ient
Ġscen arios
idd ing
gu ard
Ġf illing
ĠBe h
Ġmanufacture r
ĠBen jamin
-- -
ĠSte in
ĠT ampa
ĠEv ans
ĠE lection
ro c
Ġser ial
âĦ ¢
Ġinf ring
Ġconst rain
ock er
Ġrot ation
lam m
Ġrespect ed
ĠMc M
w hen
ĠD raft
abb ing
Ġpress ed
ĠK u
Ġover d
Ġnon profit
Ġpe ers
b ecause
Ġacqu ire
Ġc ake
Ġoper ational
Ġinc omp
z o
Ġcrop s
Ġl anes
abet es
in itely
UT ERS
Ġcomple tion
ĠLa ure
Ġhigh way
Ġtreat ing
umb led
Ġprior ities
Ġsubsid ies
Ġexplos ive
Ġanim ated
Ġres igned
ec onom
ch i
Ġe ars
ortun ate
Ġsla very
Ġdifficult ies
ĠAr ctic
ust ers
ĠM obile
Ġis lands
ĠCo hen
au c
ĠÂ ©
st ory
Ġfree ly
Ġch urches
w he
ĠCh ance
ock ets
Ġsh orter
Ġfr ight
ow ell
Ġform ally
Ġappro ve
Ġreserv es
Ġt el
Ġdes ired
or ph
Ġqu otes
Ġrif le
ĠG a
ĠR io
Ġrespond ents
Ġex em
Ġparticip ated
ĠBr andon
Ġb ones
Ġdiscl osure
th ink
z b
Ġb io
ĠF igure
ĠR ail
r idge
m n
ĠA wards
Ġcrowd s
Ġ19 30
Ġhuman itarian
Ġworth y
Ġvolunte er
ĠTe xt
Ġs her
Ġmechan ical
ic ut
Ġtut orial
val id
ĠÃ Ĺ
Ġcle ver
Ġsec ured
Ġh ier
Ġjud icial
Ġatt ributed
o ons
Ġrum ors
Ġm amm
Ġcr ude
r ane
b art
ch arge
ĠS aints
Ġcon j
Ñ ı
Ġmon etary
Ġdeliber ately
ĠCent ury
( );
ĠF ro
ict s
pro duct
Ġcult ures
Ġro cks
Ġanticip ated
Ġin hib
Ġflex ible
is en
erv ing
Ġeconom ies
ĠN eed
ud ge
K ey
ab l
ĠPro t
ĠMcCon nell
i ary
Ġinc ons
Ġb ass
im ens
ĠR aid
at ile
ĠK yle
Ġexp ed
Ġgr ateful
Ġelder ly
Ġconsequ ence
Ġj okes
s ized
Ġher itage
ĠD om
Ġpan ic
Ġteen ager
Ġdis par
ĠK l
Ġspread ing
cont rolled
Ġdisp os
Ġinter rog
Ġflex ibility
Ġto ken
Ġaff air
ĠSm all
Ġch ap
Ġaltern atives
ĠF arm
ici ary
ĠT alk
Ġt urb
Wh ich
d rop
Ġn aked
Ġz ones
Ġdecl are
ĠCirc uit
gl as
ĠP ok
c rat
Ġvir al
g i
Ġfin an
Ġabs ent
ĠK erry
Ġattend ance
ĠT erry
Ġadvant ages
az y
Ġtrig gered
B est
Ġbu zz
ĠAlbert a
iz ard
Ġtechn ically
Ġre aches
ĠS witzerland
ĠCh ap
Ġt ensions
Ġp osed
ĠB uck
ĠM itt
Ġdetect ed
Ġinst inct
Ġkn ocked
VER TIS
Ġdesign ers
Ġdisturb ing
ll ers
C urrent
Ġprev al
ĠE arly
ĠArt icle
ĠT reat
Ġpled ged
Ð ²
ĠT un
ĠPost s
or ig
s ky
ĠBrus sels
Ġinstru ments
A ust
val ue
Ġs ends
Ġsatisf ied
ĠI C
R T
Ġprocess or
Ġw rapped
il ateral
ĠM ov
ul pt
are ttes
iv a
Ġexc itement
Ġf are
Ġgreen house
Ġshif ted
Ġequ ity
Ġbreak fast
Ġflu id
N orth
Ġl un
ne ver
Ġflo ating
Ġdo se
Ġremind ed
ĠKir k
Ġharm ful
ĠP uerto
inc inn
ĠPart ners
Ġtransp arent
urn ed
Ġtr apped
Ġrep ly
Ġwel comed
Ġn ull
Ġapp eals
ĠCamp aign
ĠFrank lin
Ġhar vest
Ġres olved
ĠT a
Ġlegend ary
Ġsu itable
ĠAnt i
ation ally
ĠI ss
b est
Ġmag ical
Ġbr ains
Ġref using
Ġ7 3
Ġfit ness
Ġavo ided
pr ising
Ġgr asp
Ġport fol
Ġident ifying
est one
ĠGr ay
Ġdecl aration
Ġannoun cing
Ġ7 4
ĠJ e
Ġrec y
Ġab ol
it ably
Ġinn ings
P ress
on er
f ox
Ġl ib
Ġh orm
ĠLyn ch
ĠBuff alo
Ġste ep
Ġprov incial
Ð ¼
ĠCommun ist
i ated
Ġcondem n
Ġha bits
oc ate
Ġrus hed
ĠM D
Ġimm igrant
Ġmut ual
Ġem pire
Ġhat red
ĠBar ry
st ock
ĠM aine
Ġhy brid
s ki
Ġassum ing
ra ham
Ġminor ities
Ġoptim istic
Ġhope ful
Ġindic ating
Ġedit ors
Ġexcess ive
Ġfro zen
Ġwh ites
ĠPhil ip
Ġbrow s
Ġbel oved
incinn ati
Ġtempor arily
N G
Ġconduct ing
f old
e u
ĠV ery
ver ning
se ud
ank ing
Ġpresum ably
Ġtrust ed
Ġdeploy ment
Ġimag ination
Ġedit ing
Ġsupp ose
d ale
Ġear liest
ĠDou g
Ġass ured
ĠChrist ie
Ġst ocks
Ġtend ency
b les
ĠPr in
Ġpen et
Ġimm ense
ĠN atural
Ġsh ar
A V
ĠRog ers
ĠM om
th an
N ever
Ġbar riers
ĠG PU
1 10
Ġf est
Ġtour ists
ĠP ed
p owered
qu ality
Ġdec iding
Ġhead line
point s
Ġthrow s
Ġcast ing
ĠB ears
Th rough
Ġwor ship
ar ound
Ġcomp os
âĢ¦ âĢ¦
Ġr all
Ġinfect ed
ĠTr udeau
ĠJ ets
Ġm ixture
Ġve gan
Ġsocial ist
ll y
H aving
Ġspark ed
ĠF un
roll er
keep er
Ġbutt ons
e or
Ġg rip
Ġwa ited
Ġdam aging
r ust
Ġstruct ural
iff erent
ĠOcc up
ĠWar riors
Ġgrab bed
Ġdefend ers
Ġcolle ague
ĠB und
Ġd iver
Ġcolleg es
ĠAl t
b age
not e
Ġcrypt ocur
ĠA w
ot ton
Ġun ity
Ġathlet ic
l ib
V ideo
Ġarm or
Ġre hab
s ign
per or
Ġtr ash
ig ers
ĠH P
ig hed
m aster
Ġplan ets
ĠO scar
ĠF ried
ors es
ol k
greg ation
Ġcart oon
ne red
Ġsc rap
ĠCh uck
au kee
ous ing
ĠBr ady
Ġl ake
ĠG arden
Ġparliament ary
A nt
Ġf ru
ĠB ou
ĠJeff erson
Ġcompl iance
S ch
Ġsoc ieties
w al
ĠLiber ty
Ġpurs uit
Ġdis g
L ink
Ġwh istle
b ig
per ial
Ġclick ing
Ġa uction
al og
ĠGu ide
Ġtradition ally
Ġ7 8
f il
Ġatt itudes
pl an
og g
F ree
Ġsurviv ors
Ġhum or
Ġapproach ing
Ġwid th
ĠB h
Ġn ick
Ġex ports
Ġres on
ĠColumb us
ĠTurn er
enn a
ĠWik ipedia
V al
N EW
Cl inton
ĠH ide
Ġlegisl ature
ĠIs lands
Ġbar rier
ĠKe ith
p ace
Ġwind s
Ġch ampions
Ġdec ides
Ġpurch ases
ac ent
Ġm asc
be it
Ġh oney
B R
p ublic
Ġpure ly
Ġlif ted
Ġdet ain
af i
Ġess ence
Ġsec rets
ĠCor byn
ruct ive
c s
Ġpurs uing
Ġobserv ation
Ġtext s
ĠSh an
T om
t ics
ĠU ntil
ĠHar vey
ĠMor ning
Ġin sect
Ġthere by
Ġf ont
Ġeth ical
Ġrec ount
Ġbl ess
Ġunder mine
force ment
G ame
Ġw ishes
Ġt ang
Ġur ge
st ore
Ġgrow s
arent s
ĠD ub
AD VERTIS
Ġregul ators
Ġoff set
ĠC rown
on i
Ġf t
T ION
IV E
Ġmeant ime
ĠY ahoo
ur red
Ġdon ated
ĠC orn
ĠCh o
Ġt ong
ĠS ep
en c
s chool
Ġl aser
m i
Ġeconom ists
Ġliber als
Ġmet ab
Ġtreat y
Ġex empt
w aukee
Ġ7 1
Ġremind er
B et
Ġa est
Ġsucceed ed
Ġn ons
Ġp ist
Ġsqu ee
Ġrom antic
Ġbott les
Ġpassion ate
ĠNor way
Ġfl ip
Ġ vel
S er
Ġhack ers
Ġfail ures
p ath
ĠWW E
ĠJ u
g ree
ĠUn iverse
Ġemot ion
ĠW orks
Ġout er
d ig
icial s
ĠFant asy
ĠP ap
aren thood
Ġbreak down
ĠE V
ĠM oney
ĠE X
======== ========
Ġident ification
g ian
Ġfr action
ple x
ĠMad ison
ĠF DA
back ed
Ġt rop
ĠCam bridge
Ġadm its
E G
Ġsac rific
Ġdivor ce
Ġsens or
Ġper mits
Ġ0 1
ĠR aven
Ġdecre ased
own ers
ãģ ®
C NN
ĠD NC
] :
Ġexec ute
r ained
Ġ( )
Ġgener ous
Ġafter math
ĠP ur
ol o
ĠK arl
es is
ĠE ss
Ġsu ed
Ġwal let
Ġcomp ly
Ġdraw s
Ġ8 2
sec ond
Ġt at
Ġcomp aring
M C
Ġunf ortunate
Ġarri ving
Ġret reat
Ġfin ancing
th a
vis or
re r
is ers
Ġstr ain
Ġdis orders
ĠArk ansas
Ġvar iation
ĠMil itary
Ġsl ave
Ġenh anced
ĠWiki Leaks
ere r
ing ing
Ġfeed ing
s ource
Ġfem ales
ĠRod rig
ĠE li
rop olitan
ĠN ort
t ail
ĠG host
op es
Ġver dict
Ġhelicop ter
Ġaccount able
Ġconclud e
aw s
Ġun h
ĠGu y
iz able
ĠDep uty
D B
Ġcre ep
ĠF isher
ĠRob in
ĠRE UTERS
Ġche er
Ġtreat ments
Ġbatter ies
Ġrec onst
ad vant
Ġund ers
ĠJ ake
S outh
ĠMem orial
ĠNe il
m outh
ĠU RL
Ġpre ference
L Y
ĠConnect icut
Ġcontact s
Ġs illy
Ġlast ed
Ġmass es
ĠPol ish
ĠCommun ications
Ġcomp ound
Ġembed ded
Ġsequ el
Ġretail ers
Ġcorrespond ing
g iving
ĠM ission
Ġdestro ying
Ġlack ing
Ġenc ount
Ġd aughters
ig ma
ĠTy ler
Ġwond ered
d irect
Ġd ys
N Y
Ġcapital ist
f ive
Ġencount ered
Ġeconom ist
U E
Ñ ĭ
Ġre un
ĠR oom
Ġam pl
Ġvert ical
Ġlicens ed
S y
F our
Ġwar fare
v ation
ĠI RS
ĠK rist
ĠTh under
ĠE mb
Ġfound ing
n ormal
ĠVenezuel a
ĠSc ar
Ġc ub
Ġsm ugg
Ġag ing
ĠMar ia
ir able
Ġh ill
Ġgif ts
Ġstatist ical
h ave
p op
Ġsl ower
Ġadv ances
ĠPakistan i
are st
Ġgrav ity
L O
Ġf ierce
ĠConserv atives
elt a
ĠSpe ed
Ġcare ers
Ġst abil
W ork
accept able
Ġ198 3
ah l
Ġvill ages
U M
Ġintent ions
o a
Ġorganis ations
Ã© s
Ġsepar ation
ĠDown load
Us ing
Ġking dom
Ġauthor ized
ĠAd vent
Ġcount ing
ĠLuc as
h aul
Ġtr agic
Ġgo verning
Ġwarn ings
Ġdis pro
Ġins urg
ĠPlay ers
Ġ Ï
Ġ198 2
ĠStud ios
ĠS alt
Ġfar ms
ĠSus an
ĠMer kel
Ġdiagn osed
Ġcommission er
Ġtaxp ayer
im age
ĠSpir it
it bart
ut ical
Ġlobb ying
air y
Ġed ited
Ġdem ol
Ġal ph
Ġtransform ed
ĠC z
Ġclean ing
ĠH ub
Ġstre ak
Ġsuspic ion
F ig
Ġele ph
Ġaw a
ĠHoll and
Ġl ip
Ġc odes
Ġcontin uous
it ative
Ġb oring
ĠB os
ank a
ĠPri ze
ĠSci ences
Ġmill enn
Ġcons iders
crib ed
Ġscreen ing
Ġgam ers
ch a
ĠSt ars
ĠA th
Ġcont am
Ġdam ages
ol er
ard less
ol ine
Ġten ure
St art
writ er
ĠK le
Ġf ib
ĠN av
ear chers
Ġde ce
ĠTh or
ĠZ h
ĠBr and
Ġincl usion
ed ed
Ġfun eral
Ġcl uster
Ġf ence
her ic
Ġa ired
Ġinst ruction
ank ed
Ġtraff icking
Ġfe ared
â ĪĴ
Ġdon ation
ĠP interest
uss ion
f ly
Ġwork place
Ġinv ite
ĠD anny
Ġcred ibility
Ġte ens
Ġinst itutional
Ġmon sters
ĠD est
id ays
Ġcollaps ed
Ġ' '
ck er
Ġjust ified
S ign
A G
pp y
Ġhe nce
ham mad
Ġhypot hesis
ip h
claim ed
Ġn an
Ġsusp icious
Ġden ial
Ġorgan izing
ĠThe atre
Ġisol ation
ad ows
. :
Ġgr ace
ue ller
ĠMorm on
Ġc ort
Ġsp awn
ĠWith in
in ance
Ġste am
Ġboy friend
Ġnovel s
Ġcivil ization
Ġwrest ling
Ġur ging
Ġinter ference
Ġdoub led
ĠIslam ist
ĠPet ers
ch ar
Ã £
Ġth irty
h ome
Ġreal m
Ġmag netic
. âĢľ
Ġr ib
Ġbelie ving
Ġexp end
Ġout right
Ġsoon er
Ġev angel
O rig
Ġind ict
Ġbenef icial
Ġbr anches
Ġdec ks
Ġcry ing
Ġcomp iled
oll ah
Ġrecru iting
Ġm ock
Ġeduc ated
Ġen ables
ool s
Ġle verage
Ġinv ented
Ġr hyth
Ġrus hing
Ġelimin ated
co ins
C ap
H ill
O s
J an
Ty pe
ur able
op ard
l ive
Ġspons ored
D ec
Ġunve iled
Ġtra its
Ġbe ers
Ð ´
ĠCharl otte
ĠUb untu
ĠStud io
M et
Ġtem plate
ĠC incinnati
Ġroutine ly
Ġple aded
ĠB ash
A h
Ġp izza
fe ld
ll o
US A
ADVERTIS EMENT
Ġlab els
ĠT D
Ref erences
Ġeval uate
St ud
Ġd umb
Ġsolid arity
Ġtem ple
Ġag rees
ĠLt d
Ġbreat hing
Ġo x
Ġalbum s
au x
ĠFor mer
Whe ther
Ġmed ian
ĠK am
rodu ction
ĠBrad ley
Ġlay out
Ġdisc our
ĠPr inc
ĠH ills
ĠF el
Ġ8 8
Ġl au
re nder
ĠGl ass
Ġult ra
Gener al
amp s
Ġshif ts
Ġincent ive
ĠC ut
Ġdirect ory
ĠLe af
J ames
ĠC arson
st age
ĠO d
Ġentreprene urs
ĠB uy
ah a
Ġv ibr
ĠHind u
Ġmagn itude
M al
Ġjump ing
A lex
ast ically
Is lam
ĠC ass
Ġsmart phones
k h
ĠO liver
Ġcompar able
Ġclimb ing
w idth
ĠIndones ia
Ġarrange ment
Ġwhe els
Ġpath s
ĠS M
Ġtermin al
ess ional
Ġpil ots
dri ven
Ġmidfield er
Ġincent ives
Ġd irt
ĠM M
U I
Ġspec ified
Ġexcept ions
Ġadequ ate
t able
Ġsn aps
Ġmon op
Ġcoc aine
ace utical
Ġpsych ology
Ġpe oples
ord able
arth y
Ġpre liminary
Ġc ents
ĠSen ior
ĠMc L
ĠL ED
Ġpart ial
p ur
ĠVer izon
ĠA B
200 9
ĠVer mont
ĠP ence
Ġscream ing
Ġlyr ics
ĠSol ar
Ġvis a
ill o
ĠB JP
u cc
Ġtransl ated
Ġgl ob
Ġfirm ly
ir k
Ġch ains
un ct
Ġgen et
ĠTrib une
G od
j ar
Ġintrodu cing
ĠJ oy
Ġreg ards
Ġconnect ing
Ġcounterpart s
Ġam end
Ġac res
ĠSt re
Ġcr icket
Ġb ust
ĠF ab
>> >>
an ium
ĠG onz
Ġappeal ing
ĠFriend s
Ġme als
Ġun st
Ġun rest
W A
ĠCount ry
Ġwild life
Ã© mon
b ull
M ake
1 20
Ġd ivers
ĠS ox
ĠN in
Ġ: :
oc c
Ġtrad itions
Ġthreat en
ĠT ob
Ġp upp
Ġcreat ors
Â £
Ġvac ation
Ġsens ors
Ġlike lihood
te es
ĠBook s
Ġdetermin ation
Ġcomment ed
Ġan ime
Ġtri ple
Ġtr ace
Ġconv inc
umb ling
c end
Ġmatch ing
l ie
ĠProf ile
Ġcount ed
Ġ ðŁ
Ġbet ray
iv ic
erv ation
Ġprec ious
res a
ĠP AC
Ġto y
Ġpl aint
ri en
ĠBelg ium
Ã Ĺ
Ġmotor cy
Ġsc ulpt
Ġpar agraph
Ġtrans f
Ġshe er
ĠLeban on
ul ative
Ġinvest or
Ġkill s
Ġle agues
Ġendors ed
N ET
Ġlicens ing
Ġaccur ately
ĠAr thur
Russ ia
Ġtw ist
Ġshif ting
ĠAM D
ias m
ĠN ixon
ian g
lud e
Ġfold er
Ġdis m
ĠCow boys
ĠB Y
W est
Ġdisappoint ing
ate ur
Ġavoid ing
Ġcomp assion
at on
i ots
ack er
Ġj ew
Ġgr ain
Ġprohib ited
Ġ19 20
ur l
Ġm erc
ĠBrazil ian
ĠG arc
ĠR osen
ugg ed
ĠArgent ina
Ġwork force
Ġaccount ing
U PDATE
ĠR ams
Ġsp are
Ġor g
ĠH unt
Ġn it
Ġproceed ings
p se
ĠUnivers al
Ġf ict
ĠEb ola
Ġr iot
Ġlength y
Ġsl aves
ĠWe iss
ĠPolit ical
ri ving
Ġdub bed
pr ing
Ġin mates
Ġment ally
Ġsh aped
Ġfundra ising
Ġover look
Ġtouchdown s
Ġcelebr ity
O ct
oc aly
Ġ198 1
Ġmar ine
Ġind irect
Ġshe d
Ġwilling ness
ke es
Ġd ivid
ale y
agh d
H D
aff e
Ġint u
ĠBro s
Ġsevere ly
ul um
OS T
Ġgener ating
Ġestabl ishing
G reen
if ting
Ġshould ers
Ġnegoti ate
t or
Ġimplement ing
ĠSer ge
Euro pe
Ġp owder
Ġrenew ed
ĠM O
ĠFin ance
R ich
red ict
Ġconsum ed
g el
Ġswim ming
Ġb ite
Ġcreat ivity
ĠQ aeda
Ġrel ating
J ack
Ġse ctors
v als
r ament
Ġfire f
j e
Ġcertific ate
ĠGl enn
ĠPh one
Å į
ĠM ort
ak u
Ġassum ptions
ss on
k g
ubl in
Ġ Ø
l en
D ay
pe ople
Ġinteract ive
S ometimes
ios ity
ĠT ell
Ġobs erve
au er
l ash
Ġtrad em
S ON
ĠG ates
Ġaccomp any
ull ivan
Ġaver aged
Ġref lection
it ated
Ġh ij
ĠC her
RE AD
H igh
iox ide
Ġbra ve
u ced
Ġsa il
Ġroy al
ĠM ust
Ñ Į
Ġdis k
ant o
ĠAn im
Ġaffect ing
is ible
R ober
ĠInt erest
ĠL ane
u v
out ube
d ays
Ġfilm ing
Ġwor n
Ġblack s
at ers
Ġfol k
Ch ris
ĠAr men
ul ent
Ġind igenous
Ġearthqu ake
Ġp ub
qu al
Ġsubsc ription
ĠB ond
Ġt ub
Ġconsult ant
Ġmount ed
Ġadapt ation
Ġclin ic
Ġdetect ion
Ġ7 9
g ro
ol utions
ĠAn ne
Ġcompat ible
ro se
ĠMar co
ĠMil waukee
Ġrep ublic
ĠCl ar
ac ious
Ġy e
eng u
Ġrec alls
Ġ1 30
olph ins
Ġf uels
Ġcor ners
Ġspecial ist
B rit
Ġesc aped
ĠHigh way
Ġdi abetes
G erman
Ġ196 7
Ġwood en
Ġadjust ed
ĠM ason
Ġtri umph
Ġpredict ions
ĠC elt
i ology
Ġsl ip
Ġimp ress
oot ing
Ġproblem atic
ĠE c
Ġless er
ĠN ex
Ġad mission
Ġliter ary
Ġfar ming
n ik
ĠA ve
Ġtrans cript
âĸĪ âĸĪ
Ġmar ry
Ġm aker
Ġlaws uits
Ġaggress ion
ell a
ĠE dd
ĠBl ues
Ġorig ins
ĠC reek
ĠCol omb
ab ul
ĠH um
in os
Ġhe aling
Ġaud it
Ġcontin ent
ĠBull s
Ġtr ap
ĠGer mans
Ġ1 10
W H
Ġh oly
ĠDou glas
Ġdesc ript
Ġwhere ver
ett a
h is
Ġmusic ians
ec hes
cl osure
ĠR C
ĠGold man
iss a
Ġv on
S uper
ĠÐ ¿
ĠB B
Ġunder way
Ġmort ality
ĠRe ading
et ing
ne ath
bl og
Ġeval uation
orn s
Ġp ants
Ġab used
ĠGall ery
Ġvulner ability
Ġbankrupt cy
Ġsuper hero
Ġdel ays
ĠP arenthood
Ġres et
Ġle ather
Ġle af
W rit
Ġsh ore
Ġindepend ently
mun ition
Ġve to
oca ust
Ġsk illed
ig nt
Russ ian
h al
al ph
he w
Ġtim eline
Mus lim
ĠSp ider
T or
Ġle aks
ili ation
ĠV A
Ġinter cept
ect or
Ġresign ation
Ġin ch
Ġsu its
act ic
Ġw reck
Ġcy cling
ĠS W
ĠBron cos
Ġdark ness
Ġ18 0
Ġorgan ize
Ġsw ift
ĠV i
ĠSuper man
Ġsher iff
ail and
as i
ĠBern ard
ĠI l
ather ine
ĠS or
ble m
ra pe
Ġafter wards
Ġres ume
Ġse iz
Ġsupport ive
lev ant
mar ks
es ity
P N
Ġshoot ings
ĠS omething
.. ."
Ġin appropriate
ĠJ oh
Ġform ing
Ġ19 40
Ġlaugh ing
Ġbehavi ors
T unes
se lling
iss ance
Ġaltern ate
umb l
pe red
light s
Ġun anim
Ġtest ified
ĠIs a
Ġreb ell
Ġ196 8
Ġpract ically
Ġes p
ugg ing
ĠBud get
ĠS ad
row th
Ġbroad band
ĠT ry
Ġthorough ly
Ġcr ashed
Ġins ists
Ġteen age
ĠL ock
Ġs ie
Ġb ind
Ġdis advant
Ġlabor atory
RE L
Ġun e
Ġpre st
ĠJohn ny
Ġdoct rine
Ġenc ryption
ĠEx change
ur u
Ġcons olid
Ġk ernel
bl ack
i op
ĠVik ings
Ġloc ally
ĠAl f
Americ ans
Ġout break
!! !
Ġexha ust
ĠG ate
Ġoff shore
Ġsound ed
ke ys
Ġexp ose
Ġap ology
ĠQ B
Ġout fit
ĠRe ed
C OM
IT Y
Ġcolon ial
be an
ĠM ember
ri el
Ġautonom ous
Å ¡
Ġcorpor ation
Ġcost ly
dis play
Ġpro x
un s
Ġne at
Ġphotograp her
Ġgr ay
Ġanalys es
add y
Ġkill ings
f our
ĠSp encer
ill ery
C ity
Ġdemonst rations
Ġchart s
ĠL iving
Ġint end
ap y
Ġreason ing
Ġclass ical
Ġdem on
Ġed ges
Ġmob il
ĠPalest ine
Ġattack er
ĠW R
epend ence
Ġveget ables
Ġinf er
w er
ĠSe ah
Ġmat ched
Ġemb assy
Ġpurch asing
Ġlect ure
lement ary
Ġc m
Ġhe d
fund ed
ĠAg ree
ID S
Ġc ra
pro te
Ġswit ched
ĠK och
M ike
Ġloc als
ĠF at
ĠWal ter
ĠD iam
Ġl ap
pro of
Ġr ated
Ġoblig ation
oc ity
ĠIn v
it is
Ġgar bage
ab ad
Ġstat ue
ĠSystem s
Ġstraight forward
2 000
Ġgod s
Ġelabor ate
Ġbus es
u um
ĠL ess
M I
Ã£ o
Ġfl owers
Ġterrit ories
Ġportfol io
Ġ197 6
9 00
ĠB ased
L S
ĠBet ween
cul es
ocument ed
Ġ10 1
Ġinf amous
Ġtra uma
Ġo h
ĠL oad
ĠMichel le
ĠM erc
Ġunf old
as m
ĠS oul
Ġor che
Ġair line
) (
op ing
ion ed
oub ted
re ach
le m
Ġh alt
ĠT ory
Ġpriv ately
B it
az ed
cc a
ignt y
ĠEm ploy
ĠM MA
Ġs isters
Ġdeal ers
Ġbes ides
ĠHom eland
Every one
Ġ ^
ĠK ind
ĠA qu
ph p
ĠS el
Ġpe pper
S uch
Ġl oving
Ġf ame
ĠUn it
Ġfrust rating
Ġaccommod ate
ik ing
ĠMu hammad
z i
Ġmed ication
Ġath lete
Ġfor ums
Ġ197 5
Ġb urg
ä ¸
Ġn uts
Ġatt ributes
A v
Ġpred omin
ĠV eter
ĠDen mark
As ked
Ġhe ter
ro lling
ĠB uild
ĠCom ics
n ames
ĠG ear
Ġrank ings
Ġclos ure
ort ions
ir i
Ġlim iting
Ġmod es
pe lled
Ġstrik er
Ġ9 8
n esty
C R
Ġsear ches
v iol
Ġs ink
Ġimag ined
ĠCal gary
b ul
Ġ8 1
ĠH em
Ġwithdraw al
Ġd ated
Ġe ighth
Ġqu ery
writ ing
ĠL uck
Ġeffect iveness
resp ons
Ġst ays
Ġobser vers
ĠSub scribe
ĠN umber
Ġint ake
Ġm ph
Ġsp ill
Ġd ioxide
oth y
Ġcar riers
ĠSh adow
ĠW ATCH
Ġenthus iasm
Ġgr at
Ġwh ilst
Ġunc ons
Ġcon vey
p rom
Ġmis leading
Ġ197 3
ĠRel ations
Ġpubl ishers
Ġmeasure ments
ĠH at
ĠMove ment
Ġsubstant ially
Ġnom inated
ig a
sh irt
Ġhistor ian
ĠHar rison
L D
ĠK el
ĠP ere
Ġlist ing
ĠConf eder
Art icle
Ġstr ings
ĠG PS
Ġqual ities
ĠB uzz
Ġdelic ious
Â ®
Ġlock er
ah n
Ġrespons ibilities
Ġd angers
Ġexam ination
Ġhung ry
B ay
ĠBr un
Ġdiagn osis
Ġd ash
ov ic
ĠPal in
S M
Ġple a
D oes
Ġh ood
Ġd rought
ic he
Ġex agger
n ational
ĠP T
ĠR ace
ro ots
Ġw and
Ġdiscl ose
ĠH ud
ab el
ĠTe h
ĠA CL
Ġrev ised
Ġrel ies
Ġst ab
Ġdiff er
Ġinev itably
S emit
Ġblood y
Ġmem orial
Ġvol umes
Ġign oring
Ġc her
ĠUp date
ĠR ico
min ation
Ġ8 4
Ġloyal ty
he lp
iz ont
Ġvari ations
Ġshut down
OR T
Ġmaintain s
ĠSoft ware
Ġent ries
ĠCarl os
Ġam munition
Ġ197 2
p it
Look ing
Ġsymbol s
ĠBl air
ĠW oman
Ag ain
Ġp orts
art s
Ġyour s
A K
com m
Ġfriends hip
Ġ8 3
ins ula
ĠP as
w ear
ol an
Ġp ile
Ġclass room
Ġal tered
m ines
Ġdem ographic
Ġoccur ring
Ġphot ography
Ġc od
ĠVill age
ĠA my
Ġag greg
L ife
ĠD ennis
Ġtrib al
Ġqu ad
ING TON
osit ory
D ep
Ġalgorith ms
ential s
Ġh orses
Ġformer ly
Ġredu ces
Ġfundament ally
Ġbrief ing
Ġfulf ill
ĠPlan ned
h ole
Ġp seud
Ġinhab it
Ġrap ed
Ġcelebr ating
d el
Ġves sel
Ġhero in
#### ####
ĠBrook s
Ġdesper ately
art isan
Ġgall ery
Ġmet res
ĠWall ace
Ġsk ull
ĠL isa
ĠD R
ft en
Ġmid st
li ent
ĠTrans portation
IN E
Ġb ikes
ĠGM T
ĠJ a
Ġrein for
rep resent
Ġdisp ens
Ġde leted
we alth
âĢ¦ âĢĿ
Ġun limited
Ġ197 8
Ġsac red
ĠM i
Ġout door
Ġsh y
Ġarch ae
ab a
ĠH ockey
ĠSun ni
Ġnew est
Ġdecl ining
id ges
Ġbelong s
A c
ĠP ast
Ġins ure
Ġspect acular
Ġpres cription
Ġf iber
R et
Ġexerc ises
ĠG it
Ġju ice
Ġexpress ing
AR D
d b
P oint
Ġmod ules
Q aeda
Ġaccount ability
ĠLiber als
Ġsche mes
ĠA ld
ĠRaid ers
let ter
ĠTer ror
Ġp ipe
Ġgar age
Ġgovern ance
al so
Ġf lesh
Ġt ribute
Ġconsum e
ur ring
Ind eed
Ġrub ber
IT H
h ner
ĠEd wards
ell ar
oc ide
Ġpresident s
Ġlineback er
Ġw ip
aret te
it ial
Ġarr anged
R ob
ĠP ick
ĠM C
p ic
Ġch ase
Ġsh apes
Ġfil med
RE S
Ġbed room
put ed
al in
App le
ĠPok Ã©mon
sc he
ĠR ou
Ġsol ved
ĠShe l
Ġ8 6
ĠSeah awks
rem lin
Ġa ide
Ġpro c
Ġn odes
ag ging
Ġre ception
ĠM ueller
Ġconf using
ul u
Ġplay back
heim er
uk i
Ġbillion aire
Ġtw in
Ġaccident ally
ĠA gr
l ay
ĠCh apter
oubted ly
Ġb inding
pp o
ĠJenn ifer
ĠB us
irt ual
C opyright
Ġl oses
Ġr age
Ġperman ently
uls ion
run ner
ĠW onder
Ġto ys
200 8
V A
Ġexhib ition
ĠSh ar
A ng
Ġun le
Ġme g
ĠSer ver
Ġsan ct
ĠCo ach
ĠSil icon
Ġmisc onduct
Ġspir its
ane ous
Ġ9 6
Ġw ounds
Ġmed al
Ġbo ats
Ġth umb
s is
work ing
ĠS i
ch air
ĠL ost
Ġfresh man
ĠF ly
Ġvig il
Ġl uc
Ġpre jud
Ġsell s
ĠF ame
Ġconsider ably
ĠPhot ograph
Ġdemonst rates
ĠD ublin
ĠR ah
Ġg rey
se mble
Ġlast ing
Ġstrict ly
Ġsh ipped
Ġman ages
Ġchem istry
on ge
Ġregul ate
Ġfin als
re ated
m el
Ġmilit ant
Ġ8 7
Ġlabel ed
C r
de gree
Ġfin es
Ġtoler ance
Ġt ier
ĠTr uth
ĠN PR
Ġskept ical
Ph ot
Ġexcept ional
Ġsp ite
Ġfan cy
ĠMalays ia
M er
r ong
ie val
Ġlin ear
ĠUr ban
G R
ung le
Ġstre ams
Pro f
ĠCh ile
ĠAut o
ĠFor um
ĠZ ion
Ġpuzz le
ĠSt ring
Ġreason ably
ĠR oth
Ġtack les
Ġcance lled
M at
Ġden ying
ĠJ uan
et e
S an
ard ing
Ġpit cher
Ġ9 7
M icro
ĠD od
A ug
Ġprocess ed
ĠG and
ĠHer o
Ġlove ly
sp ace
A uthor
pro v
ĠV iol
form ing
ĠR at
Ġmid night
Ġret rie
ĠRes ources
ĠOper ation
th irds
Ġsp ends
S l
Ġrest ored
Ġorganiz ers
man uel
Ġmon ument
p x
Ġun acceptable
Ġsub mar
ĠY ears
Ġtun ed
Ġgenuine ly
Ġteen agers
Ġqu o
olute ly
ĠPal ace
ĠR ush
Ġfacilit ate
Ġm ature
ps y
ĠC ond
ĠF ile
Ġf oul
ĠRepresent atives
Ġd ancing
Ġrel ate
bor ough
Ġout lined
ĠT ill
ĠBill y
M em
Ġad vers
Ġautom ated
Ġoblig ations
Ġsexual ity
Ġdiv isions
Ġext ends
........ ........
Ġtour ism
Ġsurve ys
ĠMcC arthy
ou st
th s
ret ion
Ġle ap
Ġi Tunes
ĠC art
ai ro
ĠTh ailand
E v
Ġsuccess or
E arly
B ER
ow een
ĠP ad
ĠCh arg
id o
ĠBenn ett
Ġspot light
ĠSh ield
ĠM ack
ĠÂ ĵ
ĠAr n
Ġanonym ity
T ur
in ery
Ġin ability
Ġdefin ing
Ġab oard
ĠN DP
ĠZ ero
w ick
ĠRich mond
ĠD M
Ġrecommend ation
Ġunder neath
ĠIn valid
Ġdr illing
ri pp
ĠSp urs
Î ±
Ġgener ic
ex p
ist ically
Ġsubject ed
Ġhear ings
Ġbattle field
Ġp ound
Ġinc umb
Ġsn ap
ES S
clus ion
ĠCz ech
ĠGriff in
ĠG ay
Ġse ct
Ġspe eches
ap or
Ġconsist ency
ĠOb viously
Ġvict ories
ĠF ast
ĠBet ter
ĠG B
ĠRet urn
ĠBang l
head ed
ĠCh amber
Ġp iv
ĠH ope
ai res
S ur
Ġcontract ors
ĠChron icle
Ġn ort
Ġcor rid
ĠSe ven
Ġl ined
Ġris en
cl osed
Ġgu ilt
m os
rane an
Ġtong ue
Ġover haul
Ġinc oming
ĠCom merce
m ile
P H
Ġad verse
ed ge
ĠBre itbart
ĠM aj
Ġprem iere
Ġpar ade
ĠS elf
S O
Ġsal aries
ĠRec ord
ĠEl sa
Ġtrave lling
Ġcon cess
ĠS ay
ĠBe yond
ĠL LC
Ġste pping
ĠSoc cer
Ġname ly
Ġembr aced
Ġfrank ly
w rite
Ġrender ing
Ġdisc on
yn c
hold er
ĠSo on
âĢĿ âĢĶ
Ġtransl ate
ant i
ĠF itz
ĠTit le
ĠAcc ount
Ġm elt
Ġconfident ial
out e
Ġpl ates
Ġ0 2
Ġexhib it
Ġconfront ed
g s
Ġ196 9
ĠQ atar
Ġd ive
Ġb inary
ic ers
Ġanaly zed
Ġ ì
Ġtact ical
Ġdef ic
b ad
Ġart if
{ \
bs ite
Ġl iability
ĠWork ers
ãĢ Ĥ
Ġem power
ĠPack ers
ĠHur ricane
ĠG P
ĠElect ric
ĠG as
in ate
g reen
Ġbureau crat
ĠP un
Down load
Ġstro ke
f eed
ĠSur vey
c ill
Ġred e
Ġun ited
Ġfunction ing
ag ged
Ġg ard
ĠC ape
ier ra
os i
acc ur
Ġd ot
Ġarri ves
Ġlic enses
Ġr ings
ĠCub an
Ġpart isan
H ouse
Ġdon ate
ĠM all
Ġm ate
Ġback lash
Ġvend ors
ĠBry ant
k ill
ĠM VP
Ġdoub ts
te am
ĠPr int
uster ity
ĠH alf
Ġsteal ing
Ġsign atures
Ġc argo
| >
Ġfel ony
Ġv ib
ling ton
ĠI v
le tt
ĠN A
ĠG reens
Ġgrocer y
Ġcloud s
ĠS F
ĠML B
ming ham
Ġj ack
Ġpublic ations
Ġcasual ties
Ġ9 11
Ġaut ism
Ġp ale
Ġnegoti ating
Ġcoast al
IF A
ĠStud y
ĠR AM
Ġobject ives
Ġ9 3
Ġment ions
Ġret ro
Ġgl ory
d isc
Ġsovere ignty
Ġelectron ics
Ġdefend ants
ang o
IG HT
= âĢĿ
ĠH BO
or ity
Ġ> >
Ġprem ier
? !
ĠMet hod
Ġliber tarian
Ġind ef
Ġint ens
ĠTit an
ĠS A
Fr ank
ĠSh ah
ĠIce land
Ġarrange ments
ĠReg ional
ick ets
Ġves sels
Ġart ic
Ġhon our
ĠK ill
ut ing
Ġenc rypt
Ġac ute
Ġfl ows
Ġn od
ĠDef ence
ĠS ent
Ġdiscl osed
Ġsport ing
Ġlack s
Ġfort un
ocrat s
C le
ron es
Ġpre season
Ġnecess ity
ĠAL L
ĠS earch
ul ator
Ġprop ri
i pt
G S
B E
Ġ{ \
EC T
ĠBrother s
ĠB obby
Ġu seless
Ġun ch
Ġpret end
Ġout let
Ġ197 7
T im
Ġcl arity
Ġhe al
Ġconvinc ing
ent ions
Ġlegisl ators
f ar
V R
Ġim pe
Ġcatch ing
ĠT ib
orient ed
ĠBarb ara
Ġdign ity
there um
y d
Ġdetermin ing
Ġutter ly
Ġprotect ive
ĠL E
az ines
Ġr am
Ġtw elve
Ġc ute
u ity
Ġstimul us
pl ess
Ġlegit im
Ġcharacter ized
Ġbl own
Ġd ense
ter ior
Ġmarket place
ĠAtt ack
Ġs lic
Ġt ube
Ġspons ors
Ġtheoret ical
ĠNob ody
Ġl ighter
Ġhas h
ĠR ic
S and
Ġspe lls
Ġc ure
raw l
ĠBe ast
Ġhun ger
Post ed
ĠSim ilarly
Cl ass
< |
Ġelect ro
Ġflood ing
Ġadap ted
ĠEvent ually
om atic
end of
ĠPhill ips
us hing
ĠBrown s
E vent
uff icient
W ind
or us
Ġ9 2
z h
Ġgen ius
aug hed
Ġprev ention
ĠFr an
ĠC OM
F R
Ġeru pt
endof text
Ġse am
ĠCol on
O O
k ens
Ġswitch ing
W ashington
Ġevolution ary
Ġm all
Ġfore sts
ĠBut ler
ak y
lick r
AN T
ĠB P
const itutional
Ġen abling
Ġmus cles
Ġ Ñģ
um ns
ĠT igers
Ġglass es
Ġcomple ting
Ä į
Ġo d
ĠSh i
Ġqu arters
ĠM IT
Ġ197 4
pl ane
Ġsens itivity
Ġantib iot
ĠN ag
ĠBry an
c ost
ĠM ode
atic an
Ġf art
ĠAl tern
Ġ ),
Ä ĩ
cast le
Ġca res
Ġw are
ĠJ av
Ġbarrel s
ser ver
ant ing
em ail
C are
Ġachie ving
ĠSand y
Ġmal ware
Ġread ily
Ġexplo itation
F T
Ġmist aken
E r
ĠB R
Ġtable ts
Ġad min
Ġaffili ate
ĠP L
Ġmet a
Ġmurd ers
ĠCl ay
b uilding
Ġco at
om o
Ġha ul
Ġw it
Ġhe m
uten ant
) |
ĠL ang
ĠCast le
Ġastron aut
ĠN E
ĠB ishop
Ġequ ation
Ġlist ened
ĠOb ject
ĠSt op
Ġjurisd iction
out ed
Ġdeb ris
Ġsubscrib ers
Ġdr ill
a ired
Ġreb uild
A FP
Ġh ind
ĠI b
ne x
cont rol
ĠPant hers
ĠNever theless
vel t
Ġtrib e
ott om
Ġhold ers
IC K
ĠPlan et
Ġspons or
Ġl aughed
ĠO wn
min ed
Ġext ending
Ġspec ify
Ġsubscrib ing
Ġred ist
ĠIn side
ĠA x
Ġrefere n
Ġc ab
ĠT ar
Ġbip artisan
Ġcool ing
Ġf ond
Ġpredec essor
ĠTo o
Ġfr ames
Ġins ights
Ġsomet ime
M obile
col or
II I
ĠArab ic
Ġcan cel
ri ages
Ġref usal
Ġ197 1
' '
ĠEd ge
Ġbe aring
Ġr ats
Ġcous in
ĠIm perial
Ġfinan cially
am as
Ġe leg
Ġroll s
Ġup side
Ġswe ep
Ġsynd rome
Ġend e
I X
c m
Ġnot orious
Ġnight mare
Ġpers ist
Ġp airs
Ġdu o
Ġfire arm
ĠPr im
ĠJam ie
Ġswe eping
Ġpro port
Ġbusiness man
ĠOr thodox
ul k
r one
amp ed
ĠLe v
Ġsur pass
Ġcred ible
ĠS O
Ġarbit rary
Ġa ston
ĠAust ria
fr ame
ĠW ii
b ot
Ġattack ers
ĠB ird
Ġ3 50
Ġc u
Ġhard est
ĠInd ex
ĠB ed
ĠC u
Con f
Ġmob ility
Ġm igr
ĠD awn
Ġ14 0
Ġre ct
d ie
Ġexpect ation
res pect
Ġassoci ations
re amed
Ġmem or
Ġneur ons
ĠSp ot
ĠDou ble
Ġglob ally
ash i
Ġor al
Ġdomin ate
pro du
Ġreview ing
U K
Ġhydro gen
Ġnew er
am y
P ut
t ic
Ġviol ating
im port
ĠNew ton
b uild
Ġportray ed
ASH INGTON
Ġsp at
Ġchar ter
Ġtre asure
Ġl ately
ĠTO DAY
Ġtour ist
Ġter rain
Ġtr icks
Ġsepar ately
D irect
Ġinf lamm
agon ist
Ġendorse ment
ĠI BM
Ġdeter ior
pt ic
Ġv owed
Ġtroub led
ĠSw ift
Ġre iter
osp el
Ġrevel ation
Ä ±
V ID
ĠR achel
ĠD aw
Ġdesc end
Ġdis ability
ĠSud an
G reat
Ġa ides
n ut
Ġapolog ize
Ġnation ally
ĠB aghd
Ġpos es
Ġnav igate
Ġbi ology
in ces
Ġrel ied
ĠR ud
ĠJul ian
B uy
ĠR O
âĢĶâĢĶâĢĶâĢĶ âĢĶâĢĶâĢĶâĢĶ
ĠG R
iz ards
f in
ĠQu inn
t w
os ures
Ġsettle ments
ĠM ul
Ġwas h
ĠMar cus
am o
Ġp ockets
ĠWell s
ĠÐ ²
Ġart istic
t em
ĠTeh ran
h um
at ched
P ublic
Ġb atch
Ġcommit ting
ĠSt ra
Ġc ache
Ġg au
ar cer
umbl r
p df
th ree
Ġtourn aments
ĠLaur a
ĠB order
Ġphys ician
Ġelev ated
ith ub
Ġst raw
Ġpers istent
Ġbl end
sy stem
ĠContin ued
Ġprov ing
Ġa qu
Ġshort age
U P
Ġdecl aring
T er
ĠC SS
es pecially
Ġpr ay
Ġinc on
ĠGl obe
ade qu
Ġident ities
H ub
AS T
ian ces
ah o
Ġinter im
ar u
Ġvill ain
ĠF ish
St ring
Ġst ark
ĠBre ak
un ks
Ġa ster
Ġinv isible
ĠMach ine
Ġles bian
Ġdistingu ish
ĠC ab
Ġviol ate
Ġgal axy
Ġart work
ĠB L
ĠAss istant
Ġgrad uated
Ġvar ied
s im
Ġexclud ed
V er
ĠD ue
in ho
Ġal iens
Ġover time
Ġd rown
Ġdefin itive
ĠLeg end
Ġover see
inf o
Ġinter section
Ġ8 9
Ġpron ounced
Ġg i
aus ible
ĠK or
M ac
Americ a
ul ates
Ġrun ner
Ġkick ing
ĠN ancy
Ġanal og
t alk
Ġrel ent
ĠN at
Ġacc using
ĠT her
Ġassemb led
b one
ĠCl ose
IM E
Ġinflu ences
ro gen
ĠCard inals
Ġm ush
ĠE rd
Ġren ov
Ġpref erences
ĠNex us
Ġpre y
Ġsub way
Ġob esity
Ġrevel ations
U ntil
N ational
ou g
ĠTra vel
Ġal umin
ĠJ ong
ĠLad en
uc le
Ã¼ r
Ġfort une
ernand ez
Ġlay ing
Ġbul lets
" ;
S ports
Ġhel met
mont on
Ġwar r
ĠW ade
Ġbes ide
Ġp sy
Ġd read
ĠSe lect
D et
C ong
ĠNe ither
Ġse al
Ġrisk y
Ġp p
Ġuns uccess
Ġvary ing
Ġtrib es
Ġhand y
Ġimpl ies
ine z
Ġsh ower
Ġtoile t
ĠAff ordable
ĠT ru
Ġrent al
Ġve t
ĠD ra
ose velt
it utes
ĠM itch
rament o
ĠCle an
ĠB iden
Ġban ner
Ġkilomet ers
Ġre lying
ĠDr ag
ĠB annon
Ġne ural
ĠH orn
Ġbreak through
Ġfavor able
ĠL uther
in is
ĠWh atever
s cience
ĠMem bers
A f
Ġp etro
alth ough
Ġauthent ic
y ang
he tt
Ġtax i
Ġn urse
Ġdiss ent
ĠP il
ĠFl ight
ĠClass ic
ĠT arget
S R
Ġanaly ze
Ġrecip es
L ong
Ġreluct ant
Ġaim ing
Ġk icks
ĠJo ined
Ġcred ited
l on
Ġpat ience
Ġins pire
G old
Ġur gent
Ġassass ination
Ġfam ously
th ird
f ull
L aw
ĠC M
rit ical
Ġun aware
Ġback ers
Ġp up
rib ly
ĠJ obs
In f
ĠCol lect
B ill
Ġprof itable
Ġcl ause
ĠW ire
econom ic
ĠH R
l arg
Ġvolunt ary
Ġfact ories
Ġsubst itute
Ġca ut
Ġmass acre
Ġmeas uring
Ġrecre ational
Pl ay
Ġsum mar
omet own
as ma
ac hers
CL A
Ġpr ayers
off icial
Ġexpress ions
Ch ar
Ġtrick y
Ġmin im
Ġm ant
B ased
ĠC BC
lic ation
br aska
Ġmag azines
ĠP oly
Ġtext ure
Ġcy cles
Ġp uck
Ġpass ive
Ġdisc ourse
ĠC ant
app ro
ĠYan kees
e very
ĠV atican
ĠAr c
Ġsoc ially
Ġp ause
Ġal beit
ĠGarc ia
Ġb out
ul in
Ġund oubtedly
Ġf isher
ĠHispan ic
Ġstar ring
ĠK remlin
ĠE ither
ĠW inn
so ever
Ġatt ribute
ob i
om i
ur as
Ġmos que
ĠL em
RE E
im ated
Ġrece ivers
Ġcrew s
Ġst icks
Ġhe ated
Ġprov inces
O pen
ĠFour th
Ġwor ries
ĠInt e
ĠM ans
ĠAgr icult
Ġman eu
ĠM es
Ġcontract or
Ġdefend ant
Ġintention ally
ĠC row
us ions
Ġload ing
m us
Ġse min
Ġpreced ent
Ġmem orable
ĠPet e
Ġ ic
ĠG rey
Ġf oster
ĠPolit ics
ĠHol ocaust
Ġbroad ly
er ting
Ġfit ting
Ġour s
Ġsatisf action
he nd
atern al
Ġhy d
J apan
Ġdynam ics
Ġblog s
ĠPro test
ĠL ot
ĠInvest ig
an ne
ful ness
ĠH ait
Ġl iv
Ġfac ial
Ġbuff er
he astern
Ġst er
ĠNob el
de velop
ĠDe al
as a
Ġsum mon
p ound
ĠN EW
Ġsupp lied
Ġval ued
ĠAgree ment
Ġmulti player
ĠM B
Ġ9 4
Ġiniti ated
ĠSn ap
ĠPh D
Ġstr anger
Ġattract ion
Ġ9 1
With out
as se
ĠHall oween
ĠAl ong
Can ada
Ġne o
ĠAl ice
ort ing
Ġdisappoint ment
ĠSam uel
Ġteam mate
ĠÐ ½
Ġstick ing
ĠCh and
ĠWork ing
T ex
ĠTra il
ĠA bs
REL ATED
Ġprov es
ĠC hen
Ġsear ched
ĠEnter prise
K K
head s
Ġmart ial
ĠBir mingham
Ġswe pt
Ġmed i
Ġinc omes
00 1
Ġp ars
Ġ q
all ow
ast ing
ĠP ath
cer pt
ĠGirl s
ĠNash ville
Ġun lock
Ġepid emic
Ġfict ional
Ġdim ensions
Ġentreprene ur
ell ing
Ġmis under
b b
ĠRe form
ĠChief s
ĠFer r
Ġbroad c
ĠN ep
Ġm aj
ĠC our
ĠEngine ering
ĠBrew ing
ost al
Ġgrand father
ĠF inn
G N
c ulation
ĠIsrael is
te lling
Ġparam eter
Ġinterpre ted
F ire
Ġtheat ers
ain ted
C P
Ġevent ual
ah an
Ġachieve ments
Ñ ĩ
Ġmod ify
Ã¡ n
am ation
Ġdomin ance
ĠE le
Ġflaw s
ĠCom puter
em ale
Ġyoung est
In tern
Ġcontribut or
ĠG A
Ġworry ing
Ġtr ump
terror ism
roph ic
Ġint act
ĠS ach
Ġpo le
ĠD ays
ir med
ĠS pect
Ġw ard
Ġconven ience
Ġar ise
P ort
Ġsub mission
Ġarch ive
Ġdef ines
ĠK ath
F ox
M arch
Ġpred iction
Ġfin ale
ced es
Ġsur render
Ġtact ic
Ġobst acles
ĠY e
Ġmac ro
ĠJ oint
in formation
ĠAl b
Ġdisc ont
op ular
Ġphilosoph ical
ĠBase ball
v ised
cul us
m und
ĠF L
am bers
Ġbicy cle
ĠAl most
Ġen roll
Ġinf lic
Ġpr isons
un ique
Ġmal icious
Ġban ning
ĠB ear
Un like
L ater
z illa
Ġreven ge
ange red
Ġnav al
int age
ov ich
Ġwhat soever
ĠK ate
ĠS old
Ġsk ip
Ġnational ist
Ġn er
ment ation
Ġentertain ing
Ġc yn
ĠDiam ond
Ġdiv ine
l ation
Ġcorrel ation
ĠK az
Ġdu pl
Ġbas eline
Ġn est
ĠN HS
Ġover r
Ġneighbour hood
Ġnetwork ing
Ġshe ets
ĠL an
Ġthe or
Ġneutral ity
Ġg aps
sc ript
Ġignor ance
Ġan k
c d
Ġtw itter
Ġorgan ised
Ġinter medi
Ġtouch ing
S H
Ġconcent rated
ve t
Rem ember
\ \
Ġregul ated
Ġconsult ing
ĠR aw
Ġassault ed
on ies
ĠPortug al
Ġopp ression
Ġle thal
c lick
ĠK os
ĠF an
Ġcur s
Ġr ab
umb ai
ĠBe er
Ġev olve
ĠAn imal
Ġhor izont
Ġeuro s
Ġinvent ory
rav is
******** ********
h u
Ġsa ves
Ġc um
the m
le ased
ĠC ox
ast rous
Ġris es
ĠPict ures
Ġdesign ing
Ġconfront ation
ĠHol mes
k n
se arch
Ġn asty
gener ation
U lt
Cal if
Ġdr ain
Ġimport s
ere k
J on
Ġtrans mit
ĠMat ter
Ġto oth
sp oken
Ġsk i
Ġres ur
ĠMot ors
ĠRo osevelt
Ġquant ity
ĠCar ib
Ġover ly
Ġcrowd ed
ĠG ive
Ġadminist rators
ĠM E
Ġmer it
Ġscript s
ĠUS D
Ġvar iant
irl ines
us cript
Ġinv itation
ĠSur v
ĠL G
ĠW ol
Ġbr ick
ne apolis
Ġoff enders
Ġh ated
Ġdon or
ĠFire fox
ch ief
as ures
Ġse aled
Ġcommit ments
im eter
g rav
ĠHug hes
Over all
P erson
Ġb ay
col m
ĠR ing
ĠR PG
ĠPD F
Ġfix es
Ġ196 5
Ġremem bers
Ġw rist
Ġp add
ĠAngel a
Ġcost ume
ĠEp isode
are z
Ġnav igation
Ġ196 4
ĠN athan
Â ©
gg le
ed uc
ĠRodrig uez
li ers
Ġcomprom ised
Ġinc arcer
ĠPal mer
ĠFin land
s qu
Ġstar ters
ic ating
Ġfree ze
ide os
Ġc ord
Ġprec ision
Ġreject ion
Ġg re
Ġmathemat ical
sh ow
Ġcur rencies
ov o
Ġflaw ed
________________ ________________
Ġt ire
Ġcomm em
Ġbelong ing
est a
ĠOb serv
our ge
ilit ary
Ġover th
Ġn arc
ĠOccup y
anc ies
ĠSh aw
ĠD ise
Ġcl ash
Ġj am
Ġembarrass ing
Ġpitch ing
ok o
Ġrob bery
Ġhol idays
h ots
Ġpro xy
Ġun cle
us hed
ĠBroad way
Ġab uses
Ġquestion able
ĠF oster
Ġcur ric
Ġapp et
Ġm ast
se en
ment ioned
bel iev
Ġpresent ing
Ġble w
Ġn erve
ĠQueens land
E xt
Ġupgr ades
Ġdispro portion
Ġconstrain ts
Ġen v
ĠS ullivan
Ġad oles
ĠIndian apolis
ri ved
S um
Ġm im
Sm ith
ĠCh ase
ĠC op
Ġrend ered
Ġinfect ions
Ġstead ily
ĠS ens
ĠBoe ing
Ġremind s
Ġa pt
ĠDun can
' :
Ġunc overed
Ġpharm aceutical
Ġbase ment
Ġtradem ark
Ġb ats
ĠRod gers
Ġcont ing
Ġball ots
ĠE RA
ĠP ubl
Ke ep
ind ex
ĠC ris
C ount
as ive
W ASHINGTON
R eal
Ġdig it
ĠMont ana
Ġdist ribute
Ġopt ed
ĠL ore
OM E
Ġbeh ave
Ġout look
i per
orig inal
Ġst iff
Ã º
ect ed
rit ies
Ġmanufact ured
Ġins ert
Ġboot s
el er
Ġat e
Ġgrand mother
0000 0000
ĠR acing
Ġan throp
ĠMoh ammed
min ster
and o
Ġcomple ment
Ġpack s
Ġback wards
Ġtu ition
less ness
Ġa usterity
k now
esc ope
Ġsu ited
ĠK ash
un ge
Ġper ce
Ġevangel ical
st ick
ic ides
Ġs ab
Ġcontain ers
Ġnons ense
Ġmake up
Ġlink ing
Ġprison er
Ġdownload ed
ĠL l
av i
Ġoff ence
y our
Ġextrem ist
ĠC abinet
ĠAth let
Ġthro at
co very
Ġinj ust
Ġch ron
do ing
Ġint imate
p ol
c all
Ġshar ply
Se pt
Ġprote ins
ĠA ven
Ġcred entials
Ġcorrespond ent
ĠIn iti
r aged
Sc ott
Ġhot els
Ġsecret ly
j u
ew s
Ġcol umns
Ġtrack ed
pl ant
Ġpress ures
OR K
Ġinv alid
Ġ Ù
Ġland l
Ġsatell ites
Ġoption al
ĠAss ange
Ġhack ed
Ġbud gets
Ġqual ifying
ĠQu ick
m em
G en
ĠBaghd ad
Ġto kens
Ġcomp ounds
ĠP ink
Ġl as
ãģ Ħ
Ġb er
Ġr ivers
Hill ary
Ġpun ished
Ġwho ever
s ocial
Ġemot ionally
Ġpl ag
Aust ral
Ġsurv iving
Ġinject ion
Ġsol ving
Ġc ups
iction ary
Ġres id
ĠCl in
Ġham mer
child ren
Ġelimin ating
S am
ĠNiger ia
Ġcat tle
Ġaggress ively
pri v
ĠChance llor
Ġo ven
Ġmanip ulation
Ġhor izon
Ġswe at
Ġlaun ches
M o
Ġlif ting
ĠBr ig
Ġde lete
E mail
et ition
ĠM ine
ĠS ierra
ibl ical
Ġmet ric
Ġbo oth
Ġsubur ban
ĠP H
ĠS em
se in
com pass
ĠStud ents
ĠAle ppo
ĠCom b
ĠC ell
J une
ĠJes se
ĠPet erson
ĠP red
ĠAlp ha
Ġhor rific
ĠBrother hood
Ġnice ly
pr ises
Ġextrem ists
l ocal
Ġconclud es
Ġbrew ery
G L
Ġamb ul
er als
Ġmess aging
Ġ: )
N one
D I
Ġh ilar
ĠSac ramento
ĠCitiz ens
Ġpublic ity
ĠG ot
] )
f an
ĠPresident ial
ĠF IFA
Ġjo ins
Ġbr ush
g om
Ġrecon c
ĠH erald
Ġcompl aining
ĠZ immer
Ġvac uum
Ġprev ents
ĠBangl adesh
zb ollah
Ġprem ise
ĠD A
Ġr ides
ens on
Ġdism ant
at isf
l iter
ab i
Up dated
ag ain
ĠB elt
Ġ Å
Ġk g
Ġadvis ers
ĠHe y
Ġhaz ard
ip se
Ġjust ification
ĠCat al
Ġunder go
Ġanch or
ĠS ave
Ġtrad es
Ġsle e
ĠSh in
ed e
ĠLeg al
In vest
Ġflo at
Ġdest ructive
F ull
leg al
.âĢĻ âĢĿ
Ġo un
Ġneighb oring
ĠA round
oot s
ĠHer itage
Ġent ers
ĠM ong
ĠM I
Ġpict ured
ĠAn aly
Ġtransf ers
Ġvirt ue
Ġref und
ĠCh ip
Ġtroub ling
ĠCr iminal
ĠCol in
Ġfe as
ĠN ar
iter ranean
iz ers
Ġacc idents
ĠOver all
Ġcor ps
Ġsovere ign
Ġo k
Ġpur ple
Ġannoy ing
w ould
i ological
ertain ly
H el
Ġrecord ings
Ġtroub les
Ġnon etheless
Ġplug in
Ġun constitutional
ĠEd monton
Ġle ase
Ġ19 45
sp ons
Ġam ateur
atern ity
Ġby pass
ĠJess ica
worth y
Ġir rit
Ġdis astrous
p ay
ie ve
ain er
Ġcommission ed
et a
clus ive
ĠMS NBC
U se
Ġdim ension
T able
g reat
Ġg reed
Ġcommit tees
Ġcompan ion
ĠH TC
Be ing
Ġl iver
ĠCost a
per t
Ġte aches
ĠC av
ĠC T
Ġ0 3
Ġden ies
ĠRe ally
Ġp ad
Ġp el
ĠAll ah
v or
ĠZ one
Ġsince re
Ġj acket
um atic
H ead
ĠL ic
ĠM urd
ur ious
ĠPict ure
ĠPot ter
Ġin accur
N AS
ĠD rew
ere n
Ġexam ining
Ob viously
oc y
Ġmed itation
Ġcens orship
ro d
if iers
ĠR ivers
if iable
ĠBre nd
eal ous
Ġlegal ization
ĠAnt ar
ĠG round
Ġprom in
Ġin adequ
ĠAh med
ĠO z
Ġdeli vers
ĠAct iv
Ġimpl icit
ĠFO X
Ġop io
ĠInc re
âĢĿ :
M ax
Ġrandom ly
Ġcalcul ate
ĠG ore
ia z
ĠChall enge
Ġpriv at
Ġboss es
Ġintern ationally
ĠF ac
ĠBar n
Ġexpl ored
Ġforeign ers
Ġunemploy ed
T w
Ġh ike
op ic
Ġhand gun
o ven
Ġgrad uates
vent ions
oun cing
ĠE arlier
Ġintegr ate
ur ry
ĠR af
Ġl azy
ĠD ri
K ing
ĠÂ °
Ġcat ches
m ill
Ġcl ashes
ĠNe braska
if ully
ĠAr med
Ġb ans
ĠA irlines
ĠS L
play ing
s i
at hetic
Ġfor k
ĠK an
d esc
Ġdisp utes
ĠIm agine
ific ant
Ġd war
ĠP in
ĠO P
yl an
Ġirre levant
augh s
[ /
ĠL ives
he ll
ĠTele graph
ĠB ald
âĢ¢ âĢ¢
ass es
E U
Ġaccord ance
b oth
F I
Ġretain ed
Ġdef enses
Ġcig arettes
Ġadj acent
ophob ia
av ailable
p os
r us
h ad
Ġcomp act
uff y
Ġland mark
ĠClar ke
ust ain
B o
Ġencour ages
M uch
min ent
ig s
ver ted
l ength
Ġ16 0
J im
ĠPrin cess
r ams
ĠEv il
Ġnin th
Ġsub t
uff ed
Hist ory
Ġch unk
ĠCurrent ly
ĠComm ander
Ġprop ose
Ġâ Ĩ
Ġterr ifying
Ġstri pped
ĠZ ach
Ġhyp oc
Ġint ends
Ġlight ning
Ġdiscon nect
qu ire
os ity
ĠK er
ond e
Ġstud ios
Te am
Ġmole cules
Ġreal ised
Ġcalcul ations
ĠM aur
L ear
Ġsan ction
ĠCub s
EL L
ĠNaz is
Ġcampaign ing
Ġfar mer
Ġenact ed
ĠR u
Ġover head
Ġtoug her
omet er
Ġintrig uing
Ġcal ories
ig ue
ĠW ing
Ġrecru ited
Ġkn ees
B ron
Ġsc are
Ġconf erences
Ġinvestig ative
Ġclar ify
V I
ĠPro cess
Ġeconom ically
Ġdep ict
Ġshe ep
Ġatt ach
Ġsubst ances
undred s
] ;
Ġpro long
Ġdr agon
ograp her
Ġsymb olic
ar in
Ġr ugby
h or
Ġprof iles
Ġsocial ism
we b
Ġcrit ique
Ġmor ality
ĠWeek ly
ĠD ynam
Ġco pper
g on
Ġgu ided
ĠWe ather
Ġaff irm
Ġcent res
Ġhomosexual ity
Ġflow ing
Ġcoll ision
ĠP owell
N E
Ġpres erved
M att
Ġst ones
Ġload s
ĠF am
ĠBoe hner
Ġsl ice
Ġplace ment
ĠV oice
Ġunw illing
Ġassess ed
Ġnorm s
it ations
Ġprosper ity
Ġn aming
Ġproceed s
Ġfurn iture
Ġcou pled
anche z
p her
> <
by e
ĠC and
ĠTib et
Ġspecial ized
Ġhed ge
imp se
V M
Ġnot ified
Ġa ug
ĠI L
ĠPro s
om ers
ĠSen ators
Ġgl impse
ok ia
Ġrelig ions
Ġple asant
Ġimag ery
ograph ical
ĠT u
Ġsubur bs
ĠEff ect
Ġsequ ences
Ġsimpl er
Ġfif ty
c urrent
Ġdeliber ate
Ġcrit ically
ĠTr aining
Ġfav ored
Ġhe y
Ġexpl oded
Ġv ag
ĠZ en
ĠBe aut
ok u
ĠF ight
ĠI de
Ġch airs
Ġporn ography
pe ction
ĠP ic
ĠJo el
Ġind ie
izz ard
ĠSteven s
ĠCarib bean
ĠT ogether
J uly
Ġor b
ĠChe m
ĠAlex and
ri ans
Ġdrag ged
ĠU ser
ĠH E
' )
Ġsket ch
Ġcryptocur rency
ĠHung ary
Ġpot ent
Ġmind set
Ġtri o
Ġref uses
Ġoffer ings
Ġencoun ters
ĠC ulture
Ġl ending
Ġh ometown
ĠMed iterranean
ĠAny one
ident ified
Ġrevers ed
at able
Ġpack aging
Ġ12 5
Ġemphas ized
Ġinfring e
print s
i ably
Ġincorpor ated
lin ing
Ġsc roll
Ġfl ower
en z
ĠMil an
Ġreal ise
M D
Ġinc om
Ġen velop
Ġ0 7
et on
Ġgl ance
os ph
imens ional
Ġcur b
Ġgest ure
ues e
F eb
Ġdisc retion
Ġdis gr
Ã ł
on est
Ġst ole
E nd
F il
ost ic
ĠH ig
Ġbre ed
Ġtravel s
AM E
Ġtal ents
ul ously
ud a
Ġthr illed
ĠErd ogan
u art
Â Ģ
d eb
am pton
Ġturn out
Ġcop e
oll o
cont ent
ke ll
Ġl ing
il ia
Ġa irst
Ġcontin ually
ĠE ight
A pril
gh ai
ĠMin neapolis
Ġcance led
b ra
Ġindict ment
Ġany time
Ġstrength s
ed In
Ġmin ers
ĠCons ider
Un ited
a q
ĠB ak
ĠM ull
ĠImm igration
Ġâ ĸ
per ty
Ġder iv
1 30
Ġcontrad ict
ĠLu is
F eed
Ġm old
ĠK ay
mer cial
k ers
Ġfather s
Ġcommun ist
Ġshare holders
ĠEdd ie
iber al
J eff
ĠMus k
Ġcont empt
P ower
Ġe rect
ous ands
and ing
ĠA G
Ġha un
ĠM umbai
ĠGO OD
OS E
rik es
Ġaccount ed
Ġres il
ĠJ ar
Ġrest rain
Ġflee ing
Ġs add
Ġdes ires
asc us
Ġthread s
Ġdecent ral
ĠEurope ans
ĠPriv acy
ĠD ian
Ġapplic able
ens en
Ġtow ers
Ġind ivid
ĠG am
Ġg ambling
Ġsc al
Ġte lev
ĠT ouch
B rien
Ġhas ht
Ġvo iced
ug ar
Ġreb ounds
O H
ad ian
. ).
ĠT ask
Ġlack ed
Ġsu cc
Ġpract icing
us c
ĠStr ong
ĠPal m
h at
P ac
Ġorder ing
Ġnot ification
Ġd airy
gr at
Ġfact ions
Ġimport ed
Ġoverwhelming ly
Ġhabit at
ĠÃ ł
Ġhead er
Ġdict ators
k ar
ĠLook ing
Ã© e
ol ics
it ted
Ġref res
Ġcritic ised
est e
Ġman uscript
Ġel ites
Ġscholars hip
ĠM ath
Ġins pection
Ġ9 00
ĠW es
an ies
Ġdep icted
ĠMc D
F ile
s ight
re cy
um ar
ask et
Ġsw ap
ĠB aby
T Y
ĠD im
ĠE thereum
ĠTh ai
Ġfru its
ny der
ĠMart inez
sh aped
charg ed
ch ant
Ġprec ip
ĠM aking
ĠGib son
Ġpredict able
Ġtr im
on ut
Ġmeasure ment
Ġconv ictions
ĠJ ed
Ġl ips
ĠJ ared
Micro soft
Ġcollect ions
ĠCast ro
ĠHel p
ac cess
tr ue
Ġsur plus
Ġfemin ism
ĠCh an
Ġra ids
O kay
Ġwas ted
Ġactiv ated
ĠCo ff
Ġorg ans
ĠLat ino
ĠUn ity
Ġfe ver
Ġdist ress
Ġsu ite
ĠC ou
ab lo
Ġcolumn ist
Ġwhe at
Ġab ortions
ĠHT TP
Ġpoet ry
ĠWood s
um my
y on
m ember
Ġiss uing
Ġdepos its
ĠE P
em et
gh azi
Ġforth coming
Ġactiv ation
sec ution
Ġbe ans
ĠL akers
Ġj ets
Ġun law
Ġappreci ated
ĠB att
Ġt ender
Ġle ver
Ġsatisf y
C all
Ġpurs ued
Ġoff s
ĠB esides
Ġrall ies
ĠN ine
ÃĥÃĤÃĥÃĤÃĥÃĤÃĥÃĤ ÃĥÃĤÃĥÃĤÃĥÃĤÃĥÃĤ
Ġconst itute
ĠY ellow
Ġwe aker
Ġprogress ion
Ġru in
ĠAdv anced
Rober t
H ello
ON E
Ġsup reme
Ġlit igation
Ġh urd
Ġcons cience
p resident
Ġfin ances
Ġch ick
ĠLight ning
Ġcomp iler
ĠDem ocracy
Ġj unk
Ġamb ig
ĠAn a
Sh ort
ĠTex ans
J oe
Ġd awn
Ġfre el
Ġcrack down
ĠMer cedes
B ro
Ġbe ast
Ġschol ar
gom ery
Ġpost ers
ĠJeff rey
otten ham
ib les
Ġefficient ly
Ġwh oles
ĠM ade
ĠNorm an
Ġs id
ĠD w
Ġm g
ĠE S
ft y
ĠC urt
s omething
ce ans
Ġsh oe
Ġobsc ure
Ġkilomet res
v oc
n ia
Ġhel m
Ġguarant ees
Ġcar ing
ĠMag n
s un
L ab
ĠSum mit
M E
ĠTra ff
ĠD I
200 7
ĠAdd ed
Ġuncons cious
Ġmo ist
ĠS au
ig m
ĠVis it
ĠLabor atory
Ġstart ups
ĠPoint s
Ġactiv ism
ĠStud ent
ãĢ ģ
ĠToy ota
ĠK enn
ys on
iment al
Ġneed ing
Ġconfir ms
ateg ory
Ġdes cent
ĠF o
AS S
Ġliber ties
Ġinf inite
g ue
Ġg ly
Ġconcent rations
Ġun int
le ague
Ġb ored
P ass
Ġsc attered
Ġaccording ly
Ġthreat ens
Ġinstall ing
ĠC it
ĠA ub
Ġ0 9
Ġrock ets
m ax
ĠCreat ive
Ġro oted
Ġsec uring
Ġwood s
ĠO pt
Ġinstruct ed
Ġhy pe
Ġpass port
ĠHud son
Ġport rait
Ġdis hes
ĠNY C
Ġir ony
Ġgot ta
ĠGand hi
Ġinf ilt
ĠB omb
p aid
Ġunh appy
Ġtransport ed
Ġassert ion
Ġfix ing
at ics
ĠFred er
D el
ĠCan cer
ĠAh mad
Ġwat ches
Ġr abb
Ġd ining
ogen ic
Ġman ually
Ġch im
Ġcry stal
ing le
Ġcustom s
Ġint ensive
Ġcont race
ĠStat istics
am mar
Ġprofess ors
oul os
Ġpat ents
raw ling
ĠMarg aret
Ġassign ment
os aur
ĠL ion
ĠYou th
Ġsp here
ĠAd vis
Ġund ocumented
ĠC ool
s n
ess age
Ġremain der
ĠW alt
ĠMos ul
ĠI R
own er
t i
AC E
ĠSpr ings
ĠHe zbollah
Ġ196 6
ĠB apt
ĠBoy s
Ġshout ing
Ġhe ating
uck ed
ĠCh ad
ris k
ĠInter ior
Ġceleb rities
ĠS K
ĠW ang
Ġtra ject
Ġsurvey ed
ĠT ree
Ġproject ions
ĠC P
Ġen vision
Ġsh ark
Ġpost season
Ġge omet
Ġreact or
Ġdis gu
Ġc abin
arm ing
els h
Ġsl ated
Ġmarg ins
Ġbull ying
ĠL arge
AC T
ys ical
est on
Ġmix ing
ĠN ad
Ġr ou
Ġt ennis
Ġsystem atic
Ġl i
ĠSqu ad
Ġeas iest
Ġbackground s
Ġvacc ines
Ġsound track
Ġgr im
Ġfavor ites
ĠMon ster
ik o
Ġmin es
Ġment ality
ĠMov ie
Ġcommod ity
N on
erv ice
Ġin k
ĠB anks
Ġsu e
Ġdig est
Ġconce aled
Ġacadem ics
g irl
cl ub
Ġapart ments
ĠId ent
Ñģ ÑĤ
Ind ia
Ġaer ial
Â »
Ġbe ats
Ġadvent ures
Ġpr one
Ġd ug
ĠBM W
F ive
Ġw ra
Ġbatt ling
ĠCom cast
h art
Ġforg ot
ĠL ower
Ġdress ing
ĠS id
12 5
Ġm apping
Ġtou ches
Ġm ud
on al
_ {
Ġgrass roots
Ġcome back
Ph il
Ġbl ade
S il
ĠL O
ĠM is
Ġ0 4
Ġdis puted
ĠG aming
ĠCom ic
r ising
j pg
A E
ach t
ĠPri or
emet ery
m ount
ĠD rop
Ġmet eor
Ġ0 8
C re
Ġhe els
Ġc aucus
Ġ( Â£
Ġpromot ional
.' "
Ġpark ed
Ġfl ies
ĠH onda
ĠH im
Ġch rom
Ġc ables
Ġsm iling
Ġshout ed
Ġappreci ation
ĠP etro
ĠY ale
ĠMal colm
Ġcontinu ously
Ġl ied
ĠNe uro
id ity
ix els
Ġnut rition
Ġflags hip
Ġsl aughter
Ġble eding
ens ed
agg ering
ĠOper ations
Ġindic ator
Ġgas oline
Ġca f
Ġhand les
ph is
Ġdispl aced
Ġan om
ĠForm ula
ĠTe levision
z el
Ġdep uties
Ġsc i
Ġremote ly
Ġmathemat ics
Ġs od
ĠÂ »
Ġm ol
Ġsc ales
Ġrhyth m
Ġm i
ĠKen ya
Ġtrop ical
Ġcol ony
sh it
s u
es ville
ab lish
ĠAb raham
ĠF alls
ĠInd ependence
ĠA K
at ility
Ġstr angers
Ġse gments
Ġmulti pl
atch ing
ĠCol lection
Ġ( -
Ġmount ing
Ġw ield
Ġstaff ers
Ġgen ocide
ĠP ract
ĠDam ascus
Ġver bal
ĠCoun ter
ĠBelg ian
Ġpolic ing
ĠSt rip
Ġacc laim
mid t
Ġimm unity
Ġfl ames
ĠFin als
Ġill usion
ot er
ĠBen ghazi
l isted
ĠVin cent
ĠM ons
Ġl inem
w age
ĠCry stal
Ġd ough
or ically
Ġstat ute
Ġdis reg
r ise
Ġcle aring
on gh
Ġunp redict
Ġsh ook
Ġpull s
ĠSim p
Ġdig ging
Ġprompt ing
ĠSome one
im g
Ġic ons
Ġcompet itor
W W
Ġport ions
Ġinherent ly
Ġcharacter istic
Ġg orge
el ed
ch t
ig ion
S N
Ġconnect ivity
Ġcompar isons
Ġbr idges
Qu est
Ġbench mark
ĠCar r
ipe g
ĠWal mart
AS E
Ġ196 3
ad itional
Ġu pt
ĠWe ap
th reat
f ix
Ġaffili ated
ĠCo in
ĠM end
ĠX i
ro v
ĠWh ats
1 000
Ġamb itions
Christ ian
ĠK o
Ġto pped
ĠBr ain
ĠRaven s
ĠBr ight
Ġsh aking
ĠW a
ĠD elta
Ġcertain ty
Ġsmall est
Ġcent ered
w ait
ar se
Ġbehavior al
Ġcro re
Ġcar n
P age
Ã¶ r
Ġbl unt
ĠB ren
W omen
cific ally
Ste ve
ĠNew castle
ĠMajor ity
Ġd are
ĠTom my
OU R
Ġsynt ax
Ġdispos al
ĠHop efully
ĠIniti ative
yn asty
lud ed
Ġapplic ants
ĠCont ent
ud ed
run ning
Ġpit ched
Ġfortun ate
Ġw ished
OR D
Ġmusic ian
Ġup hold
ĠW ITH
ĠUp on
Ed itor
Ġmed ieval
ĠC ash
Ġwild ly
G C
Ġimpact ed
Ġreprodu ctive
ĠTH IS
gg ing
ĠA er
ĠSat an
Ġstorm s
Te xt
Ġst ap
Ġdis ruption
ĠSch olar
UL L
Ob ject
Ġpit ches
M ad
Ġview er
Ġwe ighed
ĠB ody
le en
Ġcontribut ors
C onst
Ġgl ac
C AR
ĠG raph
Ġat op
ĠC opyright
Ġur anium
s ay
ĠPortug uese
n ar
we gian
Ġanx ious
Ġcook ed
ĠApp arently
Ġd ent
Ġbe es
he art
Ġh ipp
ĠR ank
Ġ| |
Ġamend ments
ot ive
c amp
igg s
Ġaest hetic
sh aring
Ġst ub
ĠA CC
Ġ0 5
Ġaver aging
ĠW ere
Ġeat en
ĠH ERE
Ġst int
tit le
ean or
Ġadjust ments
âĢĿ ).
s ite
or um
Ġmy st
ong yang
Ġst akes
ĠRe yn
ich t
Ġas leep
Ġve ctor
Ġprior it
h h
ĠW ings
ĠEm peror
ÃŃ a
ur ally
V is
Ġtheat re
ĠArch itect
p ical
Ġindivid ually
Ġem pir
ĠM ann
Ġim minent
ow itz
Ġrep ository
Ġfaith ful
Ġpat ches
B as
Ġphys ic
Ġsh adows
Ġr ipped
i w
Ġcinem a
ĠR ule
akes pe
Ġp und
Ġadvis ory
Ġe go
ĠSt alin
en ly
Ġdes erved
Ġcon grat
Ġattend ees
et ooth
Ġst aring
ĠIndust ry
Ġfe ather
ĠOther wise
Every thing
ĠDan ish
3 50
Ġfound ations
ra vel
Ġsp ont
Ġcru ise
Ġdemonst rators
Ġr anges
d ollar
ĠLegisl ature
he y
P eter
Ġro d
ĠH S
F ore
Ġrecover ing
ĠVal ent
ĠK aren
c ourt
N O
ĠCar roll
Ġcand y
Ġsufficient ly
Ġque ue
Ġcar b
ĠM ob
ĠB ills
Ġdep osit
ope z
Ġdistinct ive
ĠCrime a
} ,
Ġju ven
Ġinspir ing
Ġlegitim acy
Ġcl ue
ad ata
Ġbon uses
Ġjail ed
ĠS QL
chn ology
Ġj azz
Ġcert ified
,' '
Ġn ucle
Ġcr ap
Ġrail way
ĠReds kins
Ġhier archy
T T
ĠIm pro
Ġund erest
Ġhistor ians
âĢĿ ?
Ġclim bed
ĠS ale
ĠK urt
ĠGr an
Ġal erts
Ġincumb ent
Ġmetab ol
Ġn ail
ĠColomb ia
Ġsupp ress
Ġadjust ment
Ġpl ausible
ould er
ult z
Ġun believ
ĠR A
om ore
Ġc age
ĠMet al
Ġpar as
ĠLe ave
Ġsuprem ac
Not es
Ġcr ashes
ĠUlt imate
Ġrein force
Ġab usive
ĠCons umer
Ġque en
ĠO m
Ġcook ies
Ġphys icians
bro ok
pect ives
ĠGener ation
g ow
b ach
Ġt ide
Ġe cl
um per
Ġexplan ations
Ġa fore
Ġmin imize
ĠW E
ĠB ent
Ġcont ender
id i
ĠL oc
Ġut ilities
Ġshe lf
erv ative
Ġamb ition
Ġimprison ment
Ġblow ing
op oulos
Ġneg lect
is i
% ),
Ġfound ers
ĠD ame
ĠH az
__ _
S ure
Ġresc ued
Ġoff enses
Ġposition ed
T est
ĠId aho
orth y
Ġzomb ie
Ġlight ly
Ġconsult ation
Ġvel ocity
Ġmet er
Bl ue
Ġsc am
Ġdirect ing
ĠShan ghai
Ġcig arette
Ġelect orate
Ġdeleg ation
ĠCre ate
min ing
ĠSimp son
ĠCommon wealth
Ġflav ors
Any one
Ġgi ants
st ation
als h
M ENT
Ġde ar
ĠCh ampion
ĠPer formance
Ġmotorcy cle
ĠWest minster
Ġboy cott
ĠN ut
Ġansw ering
Ġby tes
Ġ( +
Le g
H ome
Ġeduc ate
Ġsie ge
ĠK il
ĠG or
t ax
Ġbox ing
Ġhuge ly
Ġincorpor ate
Ù Ĩ
ĠThe ory
ĠMe g
Ġpersu ade
Ġmor ph
Ġpromot ions
ĠM ol
ĠS witch
Ġexplo ited
ĠLeon ard
ob a
Ġv icious
Ġal igned
ĠCol ts
ĠLim ited
Ġp ork
Ġhalf way
uter te
n els
Ġrow s
ĠS anchez
ĠM asters
an as
ĠF ix
Ġrun ners
Ã© t
ĠE t
Ġf reed
ing rich
Ġab rupt
Ġlad der
Ġt a
ĠArm strong
ĠK end
am on
prising ly
Ġcollect ively
AR K
Ġsim ulation
ĠM oss
Ġch asing
Sp ace
h aw
Ġoff line
s an
ason able
Ġapp ar
Ġluc rative
M or
R ad
Ġgener ates
Ġintegr al
Ġrecogn ised
ĠK ane
S w
Ġshow case
ĠW or
ĠS ie
er ness
ash a
Ġdies el
Ġconsist ing
ĠP orter
akespe are
ĠM add
Ġaccess ed
Ġabsor b
osh i
Ġplant ed
Ġelement ary
Ġautonom y
ĠV M
Ù Ĭ
ĠW ant
ĠEs pecially
l av
Ġsli pped
in ner
Ġfif teen
Ġassoci ates
ÑĢ Ð°
ĠSocial ist
Ġb ru
Ġopt imal
ĠO culus
ĠU CLA
ĠA F
Ġcurric ulum
Ġmilit ia
ĠSteel ers
ĠM ut
ĠInte gr
Ġjer sey
Ġcere mon
ĠAn alysis
Ġp iano
R yan
per m
Ġlow ered
Ġmar riages
olit ics
ĠConfeder ate
Ġsp ike
al one
ĠLe x
Ġman a
ĠPriv ate
ĠG N
am iliar
Ġacc ent
ĠS B
ad ays
asc ript
I ran
ber ger
Ġnegoti ated
Ġadv ancing
Ġs oup
Ġop ener
Ġancest ors
Ġtri v
Ass ad
Ġpo em
ï¿½ ï¿½
Ġw itch
ĠEm ir
ĠStr ateg
Ġappeal ed
ĠS add
He alth
Ġauthor itarian
Ġd orm
att ack
Ġeff ic
ĠD j
ie ce
Ġrecruit ment
M ap
Ġmatch up
Ġâ Ī
oun ter
Ġwe ed
Ġbl at
Ġquant ities
Ġbr on
ale z
Ù İ
Ġslow ed
Ġpist ol
ew ay
b us
ĠI Q
occ up
a que
Ġport able
Ġbl oc
Ġsatisf ying
Ġmanip ulate
ĠQ ur
Ġimp osing
Ġinhabit ants
um ed
ĠÂ Ń
Ġquarterback s
ĠS ri
And rew
ĠâĢľ [
ĠX L
Cont act
Tex as
Ġunp opular
Ġo w
il itation
Ġprotect s
Re view
Ġper ipher
Ġillust rate
ĠT on
â Ļ
Ġt ales
ĠJ ama
Ġalumin um
Ġu b
def ense
ĠT ravis
ment al
Ġloc ate
Ġp iss
Ġclass ification
ĠMon th
b as
Ġconsist ed
Ġemb ark
Ġup s
Ġhon ored
ĠH ousing
Ġpay roll
H C
reg ular
Ġhom icide
Ġfact ion
Ġtreat s
Ġar rog
im ity
Ġche ss
ir ies
ef e
Ġdelight ed
k it
Not hing
Ġres ent
ĠMin i
OC K
Ġo we
Ġprem ature
Ġblog ger
ĠCan n
ĠN ord
ĠGreat er
ĠEn forcement
ator ial
add afi
Ġtrave lled
re ctions
ĠK ap
Ġcrus hed
ik er
ell ed
Ġp ond
Ġp estic
ĠM ills
Ġconsum ing
il ight
Ġdiam eter
Ġprotest ing
Ġfert il
Ġadminist rator
Ġp ul
ĠV ent
Ġlog s
Ġhapp ily
ĠF ace
b ank
road s
ĠS outheast
ĠTer min
ĠD olphins
Ġinv ention
Ġmet rics
ĠOrig inal
Ġacadem y
ĠS nyder
ĠPr ison
Ġprol ifer
Ġdec isive
ĠAmb assador
ant om
Ġt ended
Ġat omic
ke eping
RE D
Ġart illery
Ġover view
el ong
Ġy oga
Ġpat ron
ball s
Cont in
ĠS eth
Ġinc ap
Ġv ic
ĠDar win
m ph
ĠN GO
ret ty
Ġg ates
Ġsent encing
Ġinstrument al
ĠSal v
l iv
Ġuns upp
Ġno ble
Ġc ad
ibl ings
Ġsimilar ities
EN D
Ġclin ics
Ġrecogn ise
ĠCath olics
Ġdetect ive
el ines
ĠCase y
Ġdri ed
ĠD erek
d est
ĠR ut
Ġqu ot
ĠS pl
ĠSc reen
l it
N ob
Ġdat as
ĠDel aware
ĠGl as
it ous
Ġsl ammed
met ic
Ġliv est
Ġconstitu ents
Ġcontem pl
ĠH ence
ad h
ll ah
Ġrest oration
F orm
ĠRichard son
p ers
ourn ament
ĠBre tt
Ġyield s
Ġupgr aded
Ġprob ation
ĠB O
s ix
Ġincl ined
ĠÎ ¼
ĠL ate
connect ed
Ġven ues
Ġlad ies
S cient
ĠO ften
Ġd ude
Ġprohib ition
Ġrif les
ĠY u
Ġcomb o
ĠLouis ville
Ġmark ing
Ġmasc ul
W ould
Ġsp ying
Ġseek ers
Ġcat alog
Ġapp le
I ES
r ational
Ġgen ome
Î ½
C ome
Ġenthusi astic
k ov
Ġshow c
ĠG az
Ġincons istent
og yn
ĠWe bsite
ĠNich olas
Ġmis er
Ġbreat he
Ġr ip
Ġfart her
Ġappl aud
ĠV a
e i
M ain
Ġ196 2
Ġsl ides
ĠHus sein
Ġr ider
Ġexp ans
ĠW elsh
Ġfrag ile
Ġinvestig ator
ĠDise ase
Ġn odd
Ġl ion
Ġbi ased
Ġthr ust
ĠGene va
ĠNo ah
dep th
ĠN okia
ĠHop kins
Ch ild
Ġhum ble
uff le
Ġlic ence
ĠT rip
Ġpr iced
ns ic
Ġpost p
Ġh ref
Ġcor rection
lev ard
Ġremark ably
Ġimm un
ĠPar ks
T otal
is le
ĠMont gomery
ĠRepresent ative
Ġadvis or
Ġspe ar
ĠLoad ing
Ġcon form
ĠMatthew s
Ġvari ants
ĠC rew
ig o
" ).
Ġex cerpt
ĠLear n
A ir
g ay
Ġrecip ients
ur bed
Ġsynt hetic
Ġshel ves
om on
Ġdep ressed
ĠA br
Ġun related
ĠW rest
ĠNorth west
Ġweakness es
Ġn ostal
Ġend angered
Ġt ires
Ġbail out
Ġcl ips
Ġcatast rophic
Ġc otton
asc ular
b ane
Ġtro phy
ĠHuff ington
ĠEll is
ĠP ierre
Ġtight ly
Ġjud ged
Ġo st
Ġg ren
Ġnic he
ĠC airo
he ster
e ous
Ġo ath
ourn als
w ent
v ance
Ġev olving
ĠLeaf s
f inal
Ġutil ize
Ġun con
ĠEag le
serv ice
it ially
amp ire
10 1
Ġalleg es
ĠB ach
Ġst aggering
Ġcol ored
Ġair ports
Ġgang s
Ġup ward
Ġp oured
Ġnurs es
o ir
Q ue
Ġpract iced
c ond
names e
Ġbre wing
Ġfor ty
Ġsec urities
he arted
ĠD oc
reat ing
Ġmon itors
q a
Ġcooper ate
D ate
ĠT ak
ĠVeter ans
p ose
and als
Ġr iots
Ġinterven e
ĠV ideos
ĠH appy
ĠT ab
ĠAn onymous
d ist
Ġg em
ĠW ait
Ġsl im
U G
Ġcoinc idence
f un
ans om
Ġdown s
ĠSy n
ĠSur face
Ġcamp uses
Ġpros pective
Ġencrypt ed
ĠK ids
We b
Ġbook ed
Ġextensive ly
Ġrel iability
Ġhor r
Ġchap ters
Ġinterf ere
ĠSt ories
Ġank le
ot ics
Ġoptim ism
ĠAs k
Ġecho ed
Ġmonit ored
ĠCD C
b ast
ĠH A
a uth
iat ric
Ġrem inis
ĠP ew
Q U
Ġprop osition
que z
ĠUS C
il ers
ĠY am
Ġpredomin antly
ach i
Ġflo ors
ĠJ in
ĠMun ich
ĠThanks giving
Ġsepar at
Ġwar ns
Ġang les
p ically
Ġm igrant
oy le
B B
E s
Ġsymp athy
ĠVis ual
ĠS ter
Ġtask ed
ĠIS BN
Î ¿
Ġint oler
ĠH ass
Ġinsect s
Ġdefic its
Ġgenet ically
ĠA FL
l ance
Ġwell s
Ġwe ars
ent ry
e ree
Ġre nown
in ers
ĠV illa
ĠA pr
ĠGr ace
ĠAg ent
Ġbound ary
Ġver b
Ġenfor ced
Ġfore most
ĠArn old
r ays
p res
Ġw ives
ĠU P
ĠS r
ĠB eth
ĠTun is
i ott
b ucks
ĠPr ide
U ser
Ġste ering
De velop
Ġne arest
ĠACL U
Ġpract ition
ĠSom alia
B rown
Ġfil ters
ĠE sp
Ġwhistle bl
Ġm a
ĠJ ays
ĠP ub
Ġnav ig
Ġcoord ination
ĠHe brew
Ġext inction
Spe cial
Ġinher ited
Ġcl iff
d imensional
ĠK ush
st ated
Ġbre eding
pro cess
Ġpositive ly
ĠR ot
ĠBudd hist
ĠKurd s
ir us
AT H
Ġcomb ining
itz er
Ġfe ud
Ġpartic le
Ġincl usive
Ġfor wards
Ġad ul
Ġsh ine
ĠAct ually
ĠC amb
Ġs acks
Ġcul p
ĠTri ple
Ġ10 5
ID E
ir ation
ĠFor bes
ard i
m ake
os c
s uper
ann ers
Ġscar ce
ey ed
Ġd ip
ĠReg ion
Ġe ld
Ġreward ed
Ġpri ests
h all
ĠSw an
Ġassist ed
ĠP engu
ov an
Ġd oses
Ġatmosp heric
Ġemer gence
iet h
Ġdescript ions
Ġhand ing
ĠGet ting
I ts
is co
Ġche f
Ġt ense
ĠSchool s
acer b
B ox
Ġobtain ing
Ġsens ible
Ġrelax ed
Ġafore mentioned
Ġinput s
ĠMem phis
ĠWinn ipeg
y outube
Aug ust
ĠFl a
ĠT X
c ock
cons cious
p ad
ĠCl int
Ġg rief
ĠCy ber
ator ies
ĠAbd ul
ĠW AR
am ount
Ġkind a
Don nell
Ġw oke
Ġbureau cr
an cer
ek ing
Col or
Ġins ufficient
Ġbo asts
ĠHend erson
sex ual
ĠK enny
Ġz oom
Ġther mal
Ġcaut ious
Ġcommer ce
Ġimpro per
16 0
Ġcandid acy
ĠP aper
200 6
Ġdeb ts
Ġrespect s
Ġillust rated
Ġconv entions
Ġc oding
Ġuncom mon
Ġdys function
ĠR alph
Ġst airs
ĠH ack
Ġpl um
Ġpersonal ities
het ical
L ine
Ġlight weight
Ġreal ities
Ġslow ing
ĠL um
ãĥ ¼
od er
Ġreal izing
Ġbelong ed
Ġoverlook ed
Ġu m
Ġ12 8
{ "
r ina
ch at
act iv
Ġupload ed
Ġener g
are a
Ġbo o
Ġb od
Ġadd ict
id y
M iss
Ġexp osing
Ġcycl ists
ĠCur ry
ĠF ixed
Ġnurs ing
ĠD ust
Europe an
Ġc ensus
display style
Ġth rive
Ġtest ify
ĠVal ue
Ġintu itive
sh adow
Ġperform s
ĠP HP
l anguage
Ġautom ation
f illed
Ġadd itions
ĠBar nes
Ġtour s
Ġpo ised
Ġunsupp orted
ĠPy ongyang
Ġquick er
ĠBash ar
Ġenjoy s
Ġord inance
Ġcirc ulation
Ġadm ire
Ġoutrage ous
ĠSt rike
ĠReg ister
Ġc ripp
ĠH off
ĠMon te
Ġblank et
an throp
play ed
ĠN uclear
Ġbas ics
Ġtat too
Ġse ize
Ġred es
ĠRe lease
Ġass erted
ĠKle in
st rom
Ġag grav
ĠSte phan
Ġt ags
ĠB ark
Ġorig inated
er ie
Ġsubject ive
Ġpaint ings
ĠPre vention
ĠBer g
g rown
Ġrecip ient
Ġ196 1
Ã ¸
Ġje opard
Ġa in
Ġty r
ane y
Ġvibr ant
O p
Ġno on
ĠK iev
ile m
Ġcomb inations
Ġcas ino
Rich ard
Ġwond ers
ĠRe act
ins ki
Ġb ent
ĠSil va
Ġcoord inated
ĠMc N
Re illy
L ocal
Ġrepe ating
Ġgu ides
ĠUn less
Ġgr ades
Ġvol t
ĠWild life
f air
Ġredu ctions
un al
Ġawa iting
ĠSh akespeare
et z
Wh atever
Ġl oot
Ġimm ers
ĠKas ich
eng ine
Ġmonop oly
Ġliqu or
Ġwh ales
ĠH ook
Ġparticip ant
ĠC raw
Ġfl own
Ġeval uated
ĠA j
Ġspr int
ĠWord Press
ĠB ec
Ġs way
ĠSch ne
mit t
ĠTit ans
ra f
Ġim aging
Pl us
ĠNor wegian
ĠM atch
ĠHold er
ĠAd rian
Ge orge
Ġred irect
cl ock
Ġdeal er
ĠFal cons
Ġcl ues
ĠV I
xt on
il ogy
Ġhilar ious
ĠCom plete
S un
Ġ0 6
ĠE aster
Ġmention ing
ĠE ye
Ġtrad ers
Ġreflect ing
ĠBudd h
Ġh obby
ec d
amer a
ĠAl z
p ict
Ġtast es
ĠEmer gency
Ġdetain ees
Ġabund ance
ĠDod gers
Int erest
ĠNov a
Ġsc iences
Ġmerch and
up iter
Ġnever theless
ener gy
.' '
Ġan ten
Ġbuy er
ĠRand y
ag le
Ġsoul s
ĠC ort
os ion
Ġwh ale
Ġpick up
AA AA
ĠJ unior
f amily
ine a
S al
Ġdev il
Ġinher it
iz oph
Ġtriv ial
ĠC I
ĠT ories
ĠF aith
ĠEm ily
az or
ĠH ost
Ġc ared
ĠR ust
Ġs i
ĠPear l
ĠR ules
Ġbot hered
ĠG ang
u ber
gg y
ĠH ob
Ġlit eral
Ġform ats
Ġfl uct
ĠG oth
ĠAt hens
L ove
L og
Ġwatch dog
ĠBa iley
ĠIsa ac
ĠGab riel
ĠAgricult ure
Ġopt ical
Ġsl ogan
ĠK id
us p
ruct ed
Ġdatab ases
W elcome
Ġu mb
h it
Ġdist ances
cy cl
Ġunder grad
Ġman ga
b illion
Ġsam pling
S ources
am ples
Ġc ivic
us k
Ġaston ishing
l at
ĠT ottenham
ĠC ob
en es
Ġrece ipt
Ġdark er
ener ation
Ġobs essed
Ġdemonst rating
Ġgr ams
ou ble
ÂĢ Â
Ġhur ting
ĠMet ropolitan
ĠEr n
st airs
Ġsun light
Ġinadequ ate
Ġins isting
rop he
Ġexha usted
Ġwrit ings
ĠTh rones
ĠS ite
Ġunder water
ĠU l
Ġemp athy
Ġp unk
ut ton
ĠFerr ari
Ġfin est
ĠJosh ua
Ġcou ch
Ġlobby ists
it ime
Ġs iblings
ĠEv an
S ocial
ĠPere z
Ġoverwhel med
Ġorgan isms
ro e
Ġdiplom ats
ad os
Ġe ternal
ac i
ĠJen kins
Ġst agn
Ġvast ly
es ar
Ġserv ants
ĠAustral ians
C ON
ĠT win
Ġprotocol s
s ens
ĠB in
Ġmicro sc
Ġm es
ĠM UST
ĠDep ression
" ),
Ġcon gest
alk ing
Ġsn ake
Ġsm iled
ĠC F
ĠB our
ĠSt uart
ear th
Ġhorizont al
Ġpremium s
Ġassault s
Ġde portation
Ġpus hes
dri ving
G P
Ġex acerb
Ġmole cular
Ġw olf
Ġen compass
ere rs
ĠP oke
Ġprox imity
Ġmet ro
ĠJ ob
Ġunderstand able
Ġconj unction
W as
ĠLe aders
ĠHer oes
Ġcraft ed
ĠS weet
Ġpay load
ĠA IDS
Ġspin ning
im edia
ĠT iger
ĠS gt
ĠHe avy
Ġbank ers
Ġproceed ed
ĠF uk
o at
Ġbarg aining
Ġb og
Ġwork out
Ġcapt uring
Ġjew el
Ġadv ise
Ġen light
Ġver ified
Ġprim aries
ĠN y
ophob ic
Ġg ases
Ġ19 48
Ġinaug uration
Ġb ounce
ĠProp het
Ġmed ications
ĠSt range
im ination
Current ly
Ġapolog ized
v id
Ġst aged
inent al
Ġl ingu
osa urs
Ġshall ow
Ġk et
Ġactiv ate
Ġaccompany ing
ĠPro bably
Ġax is
ĠD ylan
Ġsec recy
inte gr
ĠA ur
Ġsurf aces
Ġeleph ant
t ake
In s
Ġinjust ice
ĠNot es
Ġimprison ed
ĠSc ript
D isc
Ġpromot es
ĠKash mir
Ġsus cept
Ġj ar
Ġimpl ied
ĠViet namese
ĠSach s
Ġsupp liers
im er
ĠP ul
Ġrebell ion
ĠShe ll
izoph ren
ĠB io
ĠM ix
ĠAp ollo
sh ine
r ab
Ġun named
Ġind ul
Ġnational ism
ĠL av
n is
D ear
c ur
H y
ĠP or
Ġfiref ighters
Ġalph a
ĠG ingrich
h ouses
ig el
ĠN um
Ðµ Ð½
Ġcomp ile
Ġsp am
ĠHe aven
ĠE A
ise xual
Ġlo oph
ĠSh op
Ġdisapp ro
Ġstate wide
Ġ **
S QL
Ġin ning
V C
le um
H and
Ġwho lly
Ġrele g
Ġbe am
Ġtra it
Ġadminist ered
ĠRe x
Ġpast or
Ġgener ator
f ood
Ġnot or
Ġtr ails
Ġincom plete
Ġretail er
R ub
Ġdr astically
ĠEconom ics
Ġcompl iment
ĠD ow
re a
Ġshot gun
Ġassum es
s ic
ĠN am
ĠF ew
Ġb aking
Ġen rolled
Sand ers
Ġsl ots
Ġb rib
âĢĵ âĢĵ
Ġto ggle
Ġhur ts
Ġcont ention
Ġun b
Ġpop ulated
ĠW ag
ĠCro at
Ġfit ted
ĠMar ie
Ġhint s
ĠInd y
Ġpa ired
Ġborrow ing
q l
Ġd uck
ĠTH AT
Ġnew com
Ġl amb
g one
Ġso y
Ġp ets
Ġhighlight ing
ĠR B
st ud
Ġbat ting
Ġstab bed
g em
Con clusion
ind ust
Ġvit amin
or p
Ġpar a
the ning
7 50
Ġf lick
Ġlot tery
Ġam ended
Ġl enses
ĠIns ider
Ġint ro
Ġgra pp
Ġathe ist
ĠFl int
Th us
Ġb ang
ĠT PP
Ġplaint iffs
ĠIndust rial
Ġar row
Ġobject ions
ĠR ab
L L
Ġcontest ed
aw i
Ġaffect ion
Ġback ward
author ized
Ġcomed ian
ĠC AN
intend ent
Ġext ensions
ĠGl en
if a
ĠE ug
Ġphenomen a
Ġm asters
Ġprob able
Ġout line
Cl oud
re lla
ĠD at
Ġro pe
Ġc ites
ish a
ĠArab s
ie ves
AR Y
Ġpen is
Ġth y
Ġj aw
ou x
Ġun equ
ĠC e
step s
Ġsub urb
Ġgorge ous
ĠCole man
uss ions
Sh ould
rig er
ĠIM F
ĠAsh ley
nd ra
Ġmot ive
Ġrev is
Ġrespond s
Ġc ater
Ġr h
Ġtort ured
Ġmain land
ourge ois
Ġpass words
ãģ Ĺ
Ġemb ry
Ġinter ventions
other apy
Ġhelicop ters
ĠH alo
Ġg ently
Ġpopul ist
Ġmat rix
Ġanaly tics
sec ret
Ġself ish
Ġadmit ting
Ġobs ession
ĠEll iott
c iously
Ġco h
Ġan them
Ġcat aly
ĠS ask
Ġp ills
Ġcontro llers
Ġstand point
ĠM ak
ĠApp eals
Ġsum s
osp here
ci ation
. <|
os oph
ct ed
A ut
ot ine
ĠBur ke
in v
R un
ĠCh a
in burgh
i u
Ġterrit orial
iet al
Ġware house
ĠPat rol
Ġexplos ives
Ġconf isc
Ġcast le
ĠD ad
or o
Ġhur ricane
ĠM our
ĠJ os
B erry
Ġun ified
ĠGT X
Ġconcent rate
Ġcry st
ump s
Ġfig uring
ĠP and
it ational
conf ig
Ġcol ours
ĠV irtual
ĠV el
Ġsyn chron
f a
You ng
Ġlog ged
ĠInd igenous
ĠOff icial
ut ral
ar ious
Ġens ures
R P
Ð¾Ð ²
ĠIn g
F ixed
D ev
ook ie
Ġsymp athetic
Ġlog ging
Ġval ley
ib al
Ġprot agonist
s um
Ġmin ors
M ass
AM Y
Ġse as
Ð ·
C ent
Ġo wed
Ġprivile ged
Ġ* /
200 5
ĠDra ke
Ġerupt ed
ĠN aval
igg ins
ĠQu arter
Ġcons oles
ĠOr d
Sub scribe
az ar
ĠApp ro
uk a
Ġs atur
ĠE sc
E p
Ġide als
ĠTreat y
ĠL anc
ut ic
Ġan ecd
Ġprosecut ed
ant on
ĠSt ream
de ep
Ġsad ly
Ġdes irable
Ġpsychiat ric
oint ed
Ġsurf aced
Ġemphas ize
ĠSC P
O k
is se
Ġrev ision
Ġpl ots
man y
p olitical
Ġwel coming
r ill
Th ink
ĠEm ma
du llah
d et
ĠU FO
Ġfeed s
Ġdef er
ĠGu ild
commun ications
ĠâĢ ĭ
Ġsoph omore
pe ace
Ġto pp
ĠF ocus
Off icials
Ġweek ends
ick er
Ġcan on
Ġstret ched
Ġmos qu
Ġsand wich
ĠPel osi
oc used
M arc
Ġcal culation
ĠGo ing
Ġ ×
ĠT ol
year s
ĠSh o
ãģ «
14 0
ĠT at
S ix
Ġdistingu ished
ĠW end
Ġmag net
ract ed
Ġincomp et
Ġconstit utes
ĠW alsh
Ġconf ined
Ġg ru
Ġcorrid or
Ġselect ing
ĠRoberts on
Ġen rich
Ġd ice
m and
Ġintern ally
if le
In c
ĠSim ply
Ġcorrect ed
ĠN RA
Ġhack er
ĠJ agu
Ġpool s
Ġinform al
Ġsens ation
ri um
ĠM t
b ird
Ġgreet ed
ĠBapt ist
ĠL anguage
AN S
Ġat roc
at tering
Ġcool er
Ġpartners hips
Ġunder cover
l ar
M ult
Ġdefin itions
Ġreact ed
Ġprocess ors
ĠCirc le
Ġgau ge
ĠV ersion
ant a
Ġtraject ory
ĠKn ights
Ġhome owners
p al
Ġc el
ĠCon cer
ĠRe b
op ath
Ġprov oc
bu ilt
Oct ober
h n
Ġflood ed
ĠL opez
Ġvend or
Ġcompl ications
ĠH od
Ġjump s
ĠO mar
Ġcont ests
ĠR idge
Ġass ure
St op
me ga
Ġcur iosity
ĠF u
Ġla wn
ne ys
hol m
IT E
Ġfin ed
Ġconced ed
Ġsk ate
Ġpedest rian
Ġball oon
ĠD ale
Ġhom eland
ĠLl oyd
in ian
Ġup rising
Ġo ceans
Ġl od
o qu
. (
ĠS ak
stan bul
com mon
Ġliber ation
Ø ±
C BS
yl on
Ġcommand ers
Ġcompe lled
ind uced
Ġsyn c
Ġmax im
Ġprop osing
ĠD iet
Ġdeb ated
ĠB ot
Ġmach inery
Ġpropri etary
Ġfair ness
ĠSt ay
ĠCon n
c ue
ĠW A
ĠAdvent ure
Ġall ocated
Ġh ills
âĢĿ ),
Ġsh irts
Ġreck less
Ġo ct
g mail
P T
ĠNS W
ans on
ela ide
Ġbuck et
ĠEth iop
Ġhar ness
ĠDub ai
hed ral
Ġarm ies
do ors
ĠGu ant
Ġcompr ised
Ġpres cribed
ĠHe ights
ĠAlz heimer
Ã ª
set t
Add ed
Ġsuccess es
w ald
Ġunlaw ful
Ġsex y
ĠEn c
ĠK on
is ite
f its
ĠÐ ¾
Ġcolor ful
Ġbe e
ĠInn ov
Ġpur ported
ĠN early
ĠC inem
re v
Ġdelic ate
ĠTrans it
G I
B ob
he res
od ied
Ġvar ies
Ġsing ular
Ġsl am
Ġcell ular
Ġair plane
Pro ject
Ġwas hed
Ġstere otypes
Ġc ried
Ġcho oses
ãģ §
iff e
ic ans
ĠC ensus
ĠWe instein
Ġnick name
Ġment or
Ġparad igm
ĠThe resa
ĠS HA
ĠE M
Ġub iqu
sp an
Ġsuff ers
Ġnot ifications
ĠMar ines
aze era
\ /
Ġstory telling
Ġprompt ly
C T
ĠL amb
Ġfemin ists
Ġth a
Ġqu eries
ĠGreg ory
h l
Ġpl ural
Ġproject ion
Ġambul ance
D an
Ġdebut ed
load ed
ĠAlf red
ĠF ine
ĠU T
Ġ19 00
Ġparad ox
ĠC li
rist ol
ĠW el
ĠSh a
Ġconnect s
Ġbroadcast ing
Ġafter ward
c ision
Ġrecru its
respons ible
Ġstrateg ist
Ġten ants
ĠFal con
Ġmor ally
Res earchers
ract ion
ĠK ell
ĠH ood
Ġexem pl
Ġha w
Ġcompet itions
Ġvar ieties
S aturday
ĠSch umer
p ark
Ġgri ev
az er
Ġvis ibility
Ġcl oth
Ġpot atoes
Ġtrans mitted
l ain
Ġprest igious
Ġsen iors
Ġstun ned
ĠHar bor
ĠSol id
ĠPolit ico
Ġmethod ology
ĠD uterte
Ġmaneu ver
Ġperce ive
uff s
Ġvoc als
Ġg odd
S I
Ġcomment ators
af ort
Ġalarm ing
it an
che m
Ġgl oves
Ġeleg ant
With in
Ġobst acle
Ġout reach
re view
Ġmil estone
Ġstruct ured
Ġmis dem
M ORE
e ur
Ġco vert
e pt
asp berry
be cca
ĠT E
ustain able
Ġpit chers
Ġcolon ies
ĠTh om
ĠChampionship s
Ġsystem ic
Ġunpredict able
IC O
ĠP le
se at
Ġfool ish
Al ong
Ġweigh ing
ĠE arl
Ġsw orn
Ġhasht ag
Ġsm ok
Ġver se
Ġb acon
ĠN as
Ġcr ush
Ġyell ing
! ).
Ġmax imize
Ġhost age
ov ak
ĠLib yan
Ġexclus ion
Ġ1 11
IN T
Ġhe ck
" [
L ive
Ġignor ant
Ġbless ing
ld a
ĠPost ed
vert ising
Ġrom ance
Ġrenown ed
t ag
ry s
Ġinsure rs
D am
ĠM aterial
gg er
ar ak
ĠN FC
ĠImp act
ĠR BI
it ches
W ant
ĠOr acle
Ġlo vers
Ġinterrupt ed
p c
at ivity
Ġconsider ations
ĠF ortunately
Ġimp ly
Ġmin us
ri ents
Th ings
Ġteach ings
ĠBou levard
m ajor
Ġimpro ves
Ġgar lic
im en
Ġhum ili
aun ting
ĠC able
Ġinfer ior
Ġtime ly
Ġrel ates
Ġl ining
Ġhold er
iv ia
Ġbrut ality
Ġunsuccess ful
Ġbarg ain
ocaly pse
Ġdest inations
Ġprem ises
Ġl ament
Ġ __
Ġacceler ate
d id
ownt own
Ġp ixel
Ġfin ishes
Ġbund le
ĠCharg ers
Ġpreval ence
Ġe Bay
Ġbr acket
Ġan nex
ĠC ele
ĠB rent
Ġk its
Ġincon ven
Ġvulner abilities
Ġcr ises
Ġp ap
F ar
Ġs ore
Ġneighbour s
m ut
ĠT roy
ĠB ever
Ġdiscover ing
n ull
Ġworks hop
ian i
Ġl ur
Ġout law
Ġuniform s
Republic an
ĠM oto
ĠLear ning
ĠWin ston
ĠF ear
ĠBro ck
Ġmer ger
f ax
ĠPar ad
ag ne
ĠD h
ĠLGBT Q
Ġexceed ed
Ġst ew
it ives
Ġr ust
ĠT weet
Ġdown ward
ĠAut om
ĠL ag
Ġprivile ges
Ġexc av
Ġdiscuss es
ĠSt age
J ul
Sh ow
Ġphr ases
Ġembarrass ed
ĠMor rison
ĠGonz alez
ĠGlas gow
Ġappet ite
Ġel imination
re ra
Ġball istic
bl ue
ĠJ upiter
ri ad
ang led
Ġ" [
Ġtoler ate
ĠI van
o ids
ĠBlu etooth
Ġunw anted
Ġav iation
Ġgrad uation
em ption
Sept ember
Ġbrows ers
ĠH ab
ĠC rypt
N or
it as
Ġtw isted
Ġmar ched
ĠX P
O per
b ps
ĠBe gin
ĠThe ater
Ġcle arer
ĠL ux
ĠAven gers
Ġsol ic
Ġchampionship s
ĠH app
B ern
Ġenjoy able
Ġaccept s
red ited
id av
ĠL iqu
Ġrecogn izing
Ġper secution
Ġg ad
Ġmis ogyn
ĠW ake
Ġgun man
x on
al iation
Ġa kin
Ġbl aming
Ġspecific s
Ġshut tle
Ġ10 80
ol ith
Ġbed s
Ġwrong doing
Ġresist ant
b ard
og s
Ġtyp ing
Ġdis respect
n ings
Ġappropri ately
Ġa u
com fort
ĠPri x
Ġvol can
Ġcon ceived
ĠA verage
ĠSer b
ĠGOOD MAN
] ]
Ġl end
ĠReyn olds
ĠF ighter
ĠU pper
Ġvac ant
!! !!
c ot
Ġre per
Ġcul min
Ġb ore
oci ated
Cong ress
ĠP OL
Ġdis abilities
Jo in
Ġdesp air
Ġric hest
ĠJ eb
ĠFil ip
Ġ ..
an ity
C ourt
ĠN ode
ĠM ik
Ġextrem ism
âĢĿ ;
ard on
ĠE rik
H op
Ġnomine es
Ġthought ful
Ġ> >>
m g
int o
R edd
Ġnotice able
ĠIns urance
Ġpip es
Ġingred ient
at ism
with out
Ġdiam ond
Ġded ication
ĠM ets
Ġcorner back
ĠSat urn
work ers
Ġthr one
ä º
ĠD ana
Ġtw ent
Ġright ly
Ġnum er
in yl
ĠU g
ric anes
ev al
Ġprohib it
Ġid iot
Ġperform ers
Ġadvoc ating
Ġcondition ing
ĠM aps
Ġ} ,
L ead
Ġtun nels
t z
Ġex otic
Ġpr ag
Ġfuel ed
An n
ĠTrans port
ins ky
J S
Ġrep ay
Ġan at
Ġmeth ane
Ġste alth
U TC
ĠTurn bull
U RE
Ġthe sis
Ġfr acking
Ġsens es
OU T
th ouse
ĠÂ «
Ġcritic ize
Ġt il
ĠT ap
ĠL ogan
Ġwar rior
Ġl over
Ġentire ty
ra ve
Ġdetail ing
Ġpl asma
ĠI gn
Ġdisplay ing
Ġout field
Ġartif acts
Republic ans
ex cept
udd enly
ĠC el
ĠRep orts
Ġg rit
ĠÐ ¸
ci pl
nder ing
Ġun just
achel or
Ġsing les
ine ment
gu ided
F ind
Ġrecogn izes
ĠV o
ĠScient ology
p aper
ĠFre eman
ish ment
C amp
Ġkn ocking
Ġbar red
Ġloc ks
~~ ~~
ĠBas ically
10 5
Ġdis asters
ĠLeg ends
ion age
Ġprejud ice
Ġinflu x
b led
C ode
ĠSing le
Ġhead set
Ġmet adata
Ġadop ting
isp here
Ġmer its
ĠF a
Ġmar athon
red dit
ic able
Ġfur ious
Ġacknowled ges
B Y
ic ularly
ĠCont act
Ġrest art
ãĤ ĭ
ĠSadd am
Ġsur g
vas ive
Ġp ixels
Ġmer cy
Ġstory line
ĠPC s
Ġtr aces
Ġcort ex
p arent
Ġw ary
sh irts
Ġwip ed
Ġre dd
ĠEd inburgh
Ġun m
li ber
Ġband width
ĠPers ian
ĠB uc
ah ar
Ġpun ct
Ġv ivid
Ġinaccur ate
Ġl ag
oc o
Ġinst itute
al ion
Ġillust ration
Ġalt itude
Ġoff ences
ĠFrank en
Ġman kind
Ġoccup y
Ġdet r
Ġatt ain
ĠU nd
ĠStart ing
200 4
cent er
Get ting
Ġde er
Ġc ows
Ġpreval ent
ĠL ith
ãģ ¦
he ed
ĠAud io
w ere
M el
Ġ ë
Ġround ed
Ġprolong ed
ĠG y
ind a
G H
ĠKn icks
Ġbl essed
Ġinaug ural
Ġexem ption
ĠFR OM
A round
ram id
Ġv est
Ġsett lers
Ġgl uc
br and
F in
D aniel
ĠR ange
Pac ific
Ġcoc onut
ĠBurn s
ĠMill enn
Ġfreedom s
Ġd y
ch anging
Ġseason al
Ġab st
ĠP os
Ġph osph
Th omas
in el
E lect
US E
Ġsm arter
b usiness
ĠA RE
ĠSU V
Ġindu ced
Ġunst able
ĠPr adesh
Ġwarr ants
Ġp ave
Ġref eree
Ġer ad
Ġcar pet
Ġcap ita
Ġexped ition
Ġb ourgeois
Al most
Ġf ist
D en
Ġmot ives
Ġgr ind
Ġaggreg ate
ĠDev il
ĠB uch
Ġprogram mes
ĠPer l
ĠEmb assy
Ġaccommod ation
atin um
Ġc ite
Ġh over
Ġcomb ines
ĠFif th
> </
ĠSt o
viol ent
ĠSN P
oy s
c ourse
E nt
! âĢĻ
ĠC aval
g rowing
ĠR ift
For ce
ĠSpe aking
Ġst ems
V e
Ġlisten ers
Ġt apped
Ġ19 44
com plete
Ġdefe ating
Ex per
Ġdiet ary
Ġgr in
Ġcon qu
k ara
Ġbenef ited
Ġmir acle
ab we
Ġprogram mers
Ġcoun cill
f light
Ġenthusi asts
Ġcr ust
ĠHait i
ĠI CE
V ery
ĠR hod
an ed
ĠA A
Ġrecomm ends
ĠT C
C rit
ĠW izards
c ig
ing ham
Ġdef ect
port ing
ĠD ash
Ġbureaucr acy
Ġst yl
Ġsanct uary
Ġcriticism s
f act
Ġhous ed
Ġsymp ath
Ġrig orous
op hers
ĠS print
im ag
ĠN ak
ĠE isen
Rec ently
Ġreb oot
Ġconcess ions
ick y
Ġprost itution
Ġpaper work
am el
Ġupd ating
Ġsne ak
r t
ic ates
Pr int
Ġbom ber
ĠProgress ive
p i
) -
Ġstatist ically
Ġunf amiliar
ren ched
sequ ently
Ġlength s
Ġpred ators
ĠS ales
Ġun a
Ġdet on
ĠBas ic
Ġru ined
in qu
Ġme ga
er k
Ġfor fe
ĠStar bucks
R ock
W R
Ġhost ility
Ġheav ier
Ġd ilem
Ġchar itable
ĠSch midt
ĠHy per
imb abwe
ount ain
ĠElect ronic
av an
ĠR uth
ĠK ob
Ġuns afe
ĠJul ia
ĠI stanbul
Ġphilos opher
ess ors
ched el
Ġposition ing
Phot os
Ġcoordin ate
ur st
ĠH orse
ĠC ad
i ov
Ġst unt
Ġter rific
Ġreb uilding
ĠRoll ing
Ġins ider
Ġden ounced
ĠC ork
ĠEver ton
Fr iday
ĠL ed
ĠÃ ®
Ġacqu iring
spe aking
Nob ody
ixt y
B D
ĠE ST
ĠO t
Ġter ribly
ĠGit Hub
lic t
P o
Ġthere after
Ġsimpl icity
Ġpers pectives
ĠWH O
Ġcrack ed
Ġforb idden
ĠN J
ight y
ĠSu z
ĠSe oul
ĠAng els
âĢ ²
Ġwh it
Ġport al
ĠO kay
ĠO ri
ond o
Ġsoc io
Ġl aps
Ġsuper visor
ill es
ĠTim othy
ĠPartners hip
Ġillust rates
Ġf usion
Ġreferen ced
Ġj ournals
Be yond
ĠSe bast
place ment
Ġmult ip
ipp le
Ġobject ion
Ġgr an
Ġpl at
ĠL P
ãģ ¨
ist ical
Ġsh ade
ĠT ournament
ĠOw en
Ġinfringe ment
cast ing
Ġoff ended
ĠMor oc
Ġs perm
so ver
Ġbig ot
rest rial
Ġsch izophren
ĠRom ania
Val ue
ĠCitiz en
av in
ĠA V
ters on
Ġanaly zing
Ġtr action
Ġintrodu ces
or ie
% ).
Ġrequest ing
c in
Ġantibiot ics
Ġj ungle
ograph ics
Ġident ifies
Mc C
ĠSher man
M ex
Ġsl og
Ġ20 30
ire ction
B uild
Ġdiplom acy
Ġas c
ĠSpace X
ĠE N
bl ood
Ġch ill
ĠLe Bron
Ġintention al
Ġborrow ed
rat ives
fund ing
T ech
ish ops
ĠNot re
ĠS ame
ĠPrinc eton
pr im
Bel ow
Ġskept icism
Ġsuper f
Ġbro ker
Ġcert ification
Add itionally
l ived
Ġaff idav
en berg
keep ers
ĠLind a
Ġvol atile
ĠVictor ian
Ġfright ening
ĠMoh amed
it us
Ġunch anged
v ity
ĠScient ists
p atch
est ine
Ġsuper b
Ġrec laim
ĠM az
ĠAl ways
um i
Ġton nes
Ġreg ain
Ġar che
et ed
oles ter
ĠP ist
Ġso ap
Ġfat igue
ĠPoke mon
Ġshe lls
Ġdetect ives
Ġbet ting
ng th
H R
ĠMa o
N OT
Ġend ured
ĠBet a
ĠPR O
12 3
ĠS tern
Ġv ine
Ġorche st
af ia
ĠR are
ĠChe v
ĠExper ience
Ġindic ators
ĠC lear
ĠAub urn
ĠJ ill
Ø§ ÙĦ
ĠL iter
Ġvis as
Ġterr ified
Ġsh red
W il
ress es
AN K
Ġf ren
Ġhealth ier
Ġfav ors
Ġabsor bed
gg ie
ia o
ie u
ĠAust rian
Ġrec ons
Pl an
Ġvir uses
Ġcooper ative
ĠK umar
ĠCourt esy
OW N
ĠC ities
us ers
Ġrestrict ion
Ġg le
Ġ11 5
T urn
Ġclean er
ern ame
Ġcirc ular
ĠLet ter
ĠMurd och
ay an
sh ould
Ġmir rors
b ial
ĠV ince
Ġlower ing
Ġcap ac
er m
itness es
ĠDec l
Ġche ating
Ġinterrog ation
ĠIS IL
Ġbron ze
Ù ħ
ent e
Ġv intage
Ġpe cul
t v
he e
Ġsh aping
ĠD ani
ĠCl are
ĠBr is
av ior
ĠPl ant
Ġund is
ĠAb dullah
ed in
Ġback yard
Ġ19 41
om ical
Ġref riger
Ġsubmar ine
Ġaccess ories
spons ored
Ġexclud e
Ġaut op
Ġunus ually
Ġ17 0
ac s
Ġph ases
on so
ĠN L
op ers
Ġnort heast
act ed
C y
P ay
Ġbe ard
P rodu
" ]
Ġunder going
Ġtack ling
ĠPerson al
Ġemail ed
let te
ink le
Ġfree zing
ĠM ig
Ġnational s
Ġcy l
Ġun real
l ings
Ġcell phone
Ġtake over
Ġmin eral
Ġhorm one
Ġb ast
Ġ- --
Ġend uring
Ġd od
inte ll
ĠDay ton
Ġsub po
ĠN ice
ĠM iles
Ġl av
Ġce ment
ĠRich ards
anc ers
Ġsquee ze
Ġdevast ated
gu ards
Ġfilm maker
Ġgoal keeper
H i
ĠSask at
et c
ices ter
Ġbrand ed
ins pired
Ġadvoc ated
Ġstr ains
We ek
ĠSp art
o an
ãģ Ł
19 90
Ġbeaut ifully
ĠJul ie
Ġcommunic ating
ĠAnn ual
Ġinv iting
u ador
ĠR ugby
ĠFried man
ign ment
Ġpsych ologist
Ġfact o
Ġn avy
âĶĢâĶĢ âĶĢâĶĢ
Ġint ric
Ġproud ly
g ie
Ġpos ing
Ġhy ster
Ġtour ing
ĠB urg
pt ive
\ -
ĠC raft
Ġh orn
Ġgovern ors
Ġref ined
ĠCelt ics
ĠH i
Ġalleg ation
w ave
Ġmark er
ick ers
Ġenter prises
Ġdo i
Ġback drop
mod ern
Ġmet als
or f
Ġswit ches
Ġmodel ing
Ġhapp ier
Ġst ip
ĠSim mons
ĠNY PD
s il
Ġcourt room
ot ers
Ġpal m
ev ent
Ġ24 0
ĠD ot
ett ings
Res p
Ġimper ative
Brit ish
Ġsc aling
Ġhand c
Ġexp on
ĠCore y
ĠR abb
Im agine
Ġrespons ive
Ġinterf aces
Ġins ulin
ĠEl ite
Ġsn apped
Ġannounce ments
ĠEvery body
we ather
oss ibly
bal ance
ĠMe yer
Ġdeter mines
Ġarch ives
B P
ĠE instein
ar ium
Ġstretch ing
Ġbal ancing
K en
Ġwa ist
Ġcontam ination
K im
Ġ} );
pect or
Ġret aliation
pl ates
Ġreiter ated
y ers
Ġp ulse
Ġundert aken
Ġrival ry
Ġa rose
Ġth under
Ġrecept or
Ġdevelop s
fol k
Ġs oda
Ġf ost
Ġcha otic
ĠHaw ks
Ġ19 47
ĠDO J
Ġdepend ence
s ided
Ġar senal
S ave
S ar
ĠL ay
B T
P ict
ĠON E
m ult
Ġst ellar
Ġtravel ers
Ġinf ants
Ġauthent ication
Ġp and
Ġhard core
Ġfoot print
Ġengine ered
Ġmerchand ise
Ġwas hing
Ġshort s
Ġattract ing
ump ing
b ling
Ġp ine
ĠH arm
Ġobserv ing
Ġgall ons
le ys
Ġimp air
Ġdece ased
Ġconfir ming
Ġje ans
ĠC atherine
ĠBah rain
rec ord
H as
Ġcritic izing
Ġcompens ate
Ġagree ing
Ġappar atus
Ġpredict ing
squ are
ĠT W
Ġrev ival
Ġspecial ists
Ġre ef
Ġinnov ations
20 18
Ġfl ame
Ġanticip ate
ĠV ision
ĠPan ama
Ġvis ually
Ġposs essed
ount y
E ric
Ġele ven
Ġpen al
ĠGr ad
Ġey eb
Ġl aughter
Ġdeleg ate
ĠWalk ing
be h
ster dam
ill on
b uster
Ġep it
ĠTill erson
ax ies
K evin
Ġopio id
ĠMap le
Ġrest ing
ĠCo ver
Ġcore s
Ġw ipe
ĠUlt imately
ĠGil bert
Ġdistract ion
Ġpot ato
lu x
ĠSc ore
Ġ( .
Ġt ant
200 1
ĠVal ve
Ġbroadc aster
Ġwar mer
Ġstar red
Ġaut umn
ì Ŀ
all ah
ed u
Ġclear ance
ĠUs ers
Ġkidn apped
18 0
Ġwar riors
Ġpri zes
w en
Ġburn s
Ġs idelines
if ted
Add itional
w s
Ġreg imes
ĠR apt
ac a
Other s
Ġdump ed
Ġdom ains
Ġur gency
Ġend ure
Ġhypot hes
ãģ ª
Ġec ological
in ters
Le ague
ĠExpl orer
ĠCent ers
duct ed
ĠSim ple
Wind ows
Ġconcept ion
ĠT i
Ġo live
Ġbull shit
ĠMan afort
Ġvisit or
Ġnegative ly
amm ad
Ġcontract ed
ĠH erman
ĠDam age
Ch ief
! '
Ġr im
ĠPro duction
Ġtheir s
Ġselect ive
Ġcapt ures
Ġradio active
Ġb ilateral
S W
Ġro de
Ġdub ious
R ay
ĠBrend an
Ġcateg or
Ġpr inter
et itive
Ġbl ows
ĠP E
Ġreact ors
ĠHay es
Ġvan illa
ĠS hip
or ian
Ġnodd ed
Ġrad ically
ĠMerc ury
Ġseiz ure
Ġrep airs
ort ium
ĠPen insula
em a
ĠH ogan
Ġunbeliev able
Ġinst ability
Ġdepend ency
oster one
mo il
I AL
Ġlog in
Ġexplos ions
Ġsever ity
Ġvolunt arily
op ed
// //
Ġst al
as is
Ġill icit
ĠCraw ford
abl ished
pl aced
ien cies
Ġque er
Ġm arsh
Ġshel ters
Ġastronaut s
Ġscreens hot
pro ject
ĠLeg acy
Ġpe an
ans ing
ĠGr ass
ĠDet ails
Ġcontam inated
Ġobser ver
ĠR iley
Ġgood ness
ĠCom ment
Ñ ħ
John son
ĠC ards
ok a
land er
Ġs ights
Ġprogram mer
Ġcrypt o
Ġlone ly
Up on
verse ly
os er
Ġth wart
Ġacc use
ĠCris is
ĠEmir ates
Ġassess ments
ĠG ross
ĠB ristol
Ġcr unch
Ġside walk
Ġsubsid iary
ĠâĨ Ĵ
Ġcontent ious
Bit coin
ĠG ir
Ä «
ĠPl aza
Ġh ollow
Ġthe rape
Ġprop he
Ad am
ĠCon way
Redd it
Ġd well
Ġpal ace
ff iti
Ġfre ak
Ġpath way
health y
Ġstret ches
Ġb isexual
ĠF F
p arents
Ġrob otic
Ġhun ter
e g
Ġdem ise
OL L
s ch
Ġdisadvant age
ĠH ernandez
Ġpour ing
Ġshut ting
Ġrig id
m ass
H ard
Ġf og
ĠHon or
More over
ĠSp icer
ĠVe h
Ġdirect ive
200 3
N ovember
Ġredu nd
ĠSch ultz
Ġrese mble
Ġj ealous
Ġaw aken
ĠJ et
ĠBru ins
ĠS end
Y ear
Ġre he
H uman
ĠFr ame
Ġcook ie
Ġcompet ent
ĠLe o
K it
Ġtransl ates
Ġf ra
f ed
Ġempir ical
Ġto e
ĠVi enna
Ġru ins
ĠS aw
Ġmetaph or
ĠE L
Ġd iving
ĠR oute
w ic
Ġv om
Ġple as
Ġs om
I ll
Ġb end
Ġs ack
Ġâ ī
Ġwithd rew
ĠT M
c ry
ĠSh ane
Ġsurpr ises
Ġsell er
D O
Ġren amed
ĠP ain
Ä Ł
c ro
Ġlau nd
ĠSu ccess
ple asant
ĠAndre a
isc her
Ar ch
ĠBl izzard
ĠW u
U r
Ġchar ities
ĠB ert
c led
Ġex terior
Ġcost ing
ĠRe play
b ag
Ġr anged
ĠJed i
Ġrelent less
ott esville
Ġrem ed
ore st
Ġineff ective
Ġpar an
Ġd ull
ĠC rist
Ġins erted
Ġchar m
ĠF lickr
Ġdo omed
rah im
Ġ ï
oun ge
ĠD ell
ĠBren nan
Ġbr ig
Ġtr aced
Ġdig its
ĠResp ons
ĠInvest ment
Ð ¹
IS A
Ġreminis cent
ĠAP Is
st atic
ĠAd elaide
Ġinto x
ĠInvest igation
ĠE gg
Ġle mon
Ġle aking
Am azon
Ġown ing
ant ry
P ublished
ĠJ azz
Ġpres ervation
Ġpo pped
) ?
ĠChe ney
Ġs rc
Ġl ou
ĠReg ardless
Ġacceler ated
k owski
ĠN an
Ġmod ifications
Ġall ocation
Ġa ven
abul ary
Ġdict ator
pl anes
Ġt am
Ġcont end
Ġviol ates
Ġher b
Ġjuven ile
ĠFood s
Ġdownload s
Ġrepl icate
t imes
ãģ ¯
Ġpen cil
ĠS oph
Ġp ensions
Ġpres erving
De cember
Ġdepend encies
Ġpig s
Ġnot ices
w ife
S F
Ġreward ing
Ġmerch ants
elect ed
OR Y
Ġacceler ation
Ġfeas ible
Ġappoint ments
ĠC opy
ĠB un
Ġrad ius
c ity
V ol
at ured
^ {
Ġtw ins
Ġm asks
ĠWeb b
ĠTh an
S omething
B esides
Ġye ast
ĠL ance
in vest
Ġatt achment
,âĢĻ âĢĿ
ĠBeh ind
Ġout dated
Ġdiscont in
Ġlaugh s
ident ally
Ch inese
T L
Ġup held
Ġsp ouse
Ġprosec ute
J ones
C raft
Ġpo inter
Ġr apper
Ġposs essions
a ft
Ġv andal
ĠObserv atory
S B
Ġde af
Ġ 000
any on
Ġn urt
Ġm s
ĠT rent
it em
F OR
ĠS kin
ĠF act
Ġiron ic
Ġ195 9
D ig
Ġat oms
ĠJud iciary
ĠAr row
Ġup wards
m atch
Ġret ros
ĠKush ner
ĠPir ates
ĠBr anch
Ð ¿
Ġenroll ment
f alls
ess a
Ġin ad
ĠR F
Ġneed le
Ġoper a
Ġnegoti ation
ĠP TS
be e
H E
Ġveget able
Ġspir al
Ġembr acing
G roup
ĠE lementary
Ġprim itive
ĠT aking
ĠNe g
Ġtrain er
in ational
c ould
Ġcont ributes
Ġres olutions
Ġfest ivals
Ġdis se
h ops
aw ays
E ver
Ġfert ility
Ġtoss ed
Ġd un
ĠBeat les
Ġmicro phone
ate l
Ġshr ink
Ġv apor
Ġ10 2
S und
Ġbomb ings
L ou
Ġâ Ķ
Ġle aning
Ġha iled
Ġcongress man
ĠK in
Ġ& &
Ġshoot s
Ġhun ters
Ġte asp
sec ure
Ġv inyl
Ġ18 00
ĠZ ucker
v ideo
own s
Ġre jo
Ġmer ge
Ġal lev
( $
Ġcop ied
ro ot
W in
ĠPro du
F inal
Ġp ier
Ġall ied
ett i
Ġcost umes
ob ject
ĠSpe cifically
Ġforecast s
Ġwithd rawn
Ġmod ification
M ur
bor o
Ġiter ation
st ad
Ġmechan ic
ĠG ul
Î ¹
Bet ween
ĠVol ume
ĠDis covery
ĠDev ils
ĠB orn
Ġmyth s
Ġap ost
Å ¾
Ġstamp s
iv able
,âĢĻ âĢĻ
Ġ10 4
Ġch amp
ĠConserv ation
st atus
m ails
P E
Ġhop eless
Ġdimin ished
ĠA be
Ġdiscover ies
Ġdisappear ance
ĠMan uel
omed ay
Ġch uck
st y
Ġinspect or
ĠCom edy
Supp ort
Ġt ally
ĠK iss
m or
Ġe man
Ġ Ã©
ven ant
Ġper tain
J ew
Ġaccess ing
ĠMe et
AC A
Ġanticip ation
Ġcos mic
Ġvolt age
ret urn
Ġv ault
Ġdoub les
ari at
D eb
Ġuns ure
r h
V ict
ĠProf essional
ile aks
Ġr uth
Ġsmooth ly
s rc
he id
Ġout spoken
ĠRock ets
A BC
Ġtur moil
ĠSter ling
Ġg aze
Ġl b
ush i
ent ric
Ġsal ad
ĠMir ror
c f
Ġgif ted
c am
uff er
Ġmy riad
Ġmamm als
Ġfr amed
ĠTw enty
Ġo lig
Ġathe ists
Ġalleg ing
larg est
Ġpod ium
Ġoccur rence
Ġfore front
Ġinter val
Ġairst rikes
f alse
Ġoffs pring
ĠZ imbabwe
ĠAct ive
Ġsex ist
Ġextract ed
ĠAli en
Ġfore nsic
ĠMem ory
Ġrad i
ĠM ead
Ġvalid ity
Ġmilit ias
ĠWhats App
Ġadequ ately
le aning
ĠGe off
ph oto
Ġt outed
ĠSouth west
ĠC ord
ĠUs ually
ĠAd obe
ĠMount ains
d in
IS S
Ġna ive
ĠNational s
Ġnar ratives
f ired
Ġtrig gers
Ġintr ins
Ġcompat ibility
ĠF M
ĠB oss
D i
ĠTr ack
Ġcan cell
Ġneuro log
Ġcelebr ations
read ing
ĠQual ity
Ġext rad
ĠD uty
c ified
d oc
ĠMon ica
am ic
Le vel
Ġjud ging
t ier
Ġr ansom
Ġche ek
ĠTro phy
Ġstim ulation
Ġper ceptions
Ġimm ort
N ick
ĠBeng als
re z
Ġe cc
L in
Ġground ed
ĠJo in
Dem ocrats
ĠSim ilar
Ġcr ashing
Ġcreep y
Ġelev ator
ĠRec ently
an ol
Ġpret ending
ot on
iss an
ĠB irth
ot he
Ġsle pt
Ġaster oid
be fore
ĠFl ag
M a
Ġw ires
l ins
our ing
Ġexch anged
ĠCle arly
c ross
Ġadoles c
En ter
cre ate
Ġnarrow ly
Ġun ite
Ġmark ers
ĠTer rit
part isan
AT A
Ġcollabor ative
Semit ism
Ġsuccess ion
Ġwholes ale
ĠB ass
ĠP ars
over ty
d oes
ĠAl ger
J osh
Ġstreng thening
Ġjust ices
Ġclean ed
ĠBald win
ĠD LC
Islam ic
Ġtop s
Ġacknowled ging
ustom ed
Ġbol ster
Ult imately
Pr ime
Ġretrie ve
Ġplace bo
Ġun armed
ucc i
Ġnorth west
ĠH ond
els en
ĠTr ain
ud s
Ġ á
ĠKenn eth
is ure
Ġemploy s
ĠScient ific
ĠLeban ese
Ġsuper vision
ĠEx cept
ĠG rowth
Ġsustain ability
List en
Ġind oor
Ġsuper st
Ġind o
Ġ19 39
C ast
Ġperfect ion
W ow
Cre ate
Ġe ject
ĠK oh
ĠBudd ha
ĠSky pe
ĠL ud
ĠCoff ee
Ġcur se
f ight
Ġdom ination
Ġcomp ares
w ire
P y
Ġrefres hing
Ġcan s
Through out
Ġspe cially
Ġnut rients
Ġmeaning less
b ands
Ġlun ar
Ġash amed
Ġdepth s
Ġdec ay
ĠCom ing
C ustom
Ġevac uated
D F
ors che
Ġrel iance
Ġdisg usting
Ġb idding
ĠFl oyd
Ġdis charge
ĠCurt is
Ġpredict s
Ġhypot hetical
ĠMy ster
ĠBeng al
Ġ4 50
Ġh alls
ors i
Ġdecentral ized
. ;
Ġsusp end
Ġsect arian
ĠB TC
ĠK ot
11 5
L ittle
Ġoverl ap
Ġhonest y
c ulture
ĠA part
od s
Ġk in
Ġblast ed
Ġvers atile
Ġdefe ats
Ġleft ist
Ġ2 20
Se ason
ĠN ike
Ġsc andals
ĠF resh
Ġr ack
Ġresearch ing
Ġregul ator
Ġperpet rators
Un iversity
L ess
Ġho ax
ul atory
Ġpo orest
Ġbe aches
ĠYOU R
ĠP v
ve red
Ġso ber
ĠC ros
art en
H am
Ġfrequ encies
ĠZ oo
he ard
Ġgrant ing
Ġconcept ual
Ġexp ired
ĠR ew
ĠMons anto
ĠRe ce
ĠKurd istan
Ġpr ince
Ġde ported
Ġfut ures
Ġanarch ist
ĠBuzz Feed
ĠJackson ville
ĠUlt ra
iv o
ant ine
Ġfirm ware
Ġnight club
Ġf rog
ĠÂ ·
ĠJ SON
st ru
M aking
ĠZimmer man
dog s
Ġpast e
ĠE lder
ĠTechn ologies
ĠAn cient
Ġparent al
Ġgovern ed
ĠEv olution
count ry
Ġlo oming
Ġd os
Ġtang ible
Ġsign aling
Ġrele vance
C ard
ac ial
em er
W estern
Ġramp ant
ĠAbb as
Ġturn over
Ġid ol
ĠJ ur
Ġto dd
ĠCh oice
Ġeval uating
Ġdecl ines
Ġun cover
Ġsp ine
Ġlivest ock
Ġrecy cling
ĠF ernand
c oll
Ġcruel ty
Ġst ing
Jan uary
A cc
h agen
Ġjudge ment
ĠB og
Ġextract ion
Ġp ent
Ġbit coins
ass is
Ġembarrass ment
Ġrep s
Ġer r
ĠBris bane
is ans
Ġg it
ĠAny thing
ĠHel en
Ġaccum ulated
L ee
Ġrelie ved
ĠLe ad
ĠB le
Ġbi ography
ĠCamb od
oust ic
Ġfalse ly
Yes terday
ĠCh arter
Ġfilm makers
C redit
Ġg y
ĠEc uador
F rench
Ġcorrespond ence
Ġstake holders
Ġgl orious
ĠO val
in as
Ġtax ation
ĠBlack Berry
ĠB il
r ance
ĠRes ults
ĠCan ucks
ĠB T
Ġsex ism
ĠMid west
Ġfrag ments
Ġunder went
ub a
ĠMcC l
Ġstat istic
Ġreinfor ced
Ġdiplom at
Ġair lines
right s
Ġwe ights
te chn
ol ia
Sub ject
Ġreal ization
ĠCan on
Ġpart ition
ĠEv ents
æ ľ
Ġyell ed
Ġhook ed
Ġdistract ed
em y
Ġw anna
Ġcl o
ĠCr us
ĠV P
ĠCon c
ĠE asy
ob ic
Ġsuper market
ĠViol ence
ĠHe ath
Ġe ch
St r
Ġresemb les
s cient
ex pl
Ġanal ogy
Ġsh iny
P rior
Ġstuff ed
Ġgl oss
Ġconstitu ency
reg or
Ġsound ing
ul ed
Ġthe ology
Ġdivor ced
ĠUp dated
ĠJud a
ĠIr ving
secut ors
Ġmem br
Ġout raged
Ġbom bers
ĠB ened
ĠH ag
o it
Ġindirect ly
Ġdest abil
g age
ĠC ertainly
Ġj oked
ak is
Ġbr ass
Ġnom inations
Ġbur ial
Å Ł
board ing
are ndra
ĠSh ot
Ġtr ilogy
Ġg room
ĠIn qu
ĠInd ividual
ĠIS Ps
ĠAnd ers
Ġs ung
,' "
Ġfundra iser
ĠLa unch
ĠCharl ottesville
Ġbu ys
ĠB row
ÑĤ Ð¾
met ry
Ġs outheast
ĠSalv ador
ĠS ig
vention al
ĠPer fect
ĠN est
12 8
10 4
Ġgl ow
id ate
ring ton
Ġdr ums
l ia
ĠPlan ning
l n
Ġheight ened
Ġcomp uls
c od
I Z
Ġoverth row
Ġillness es
Ġfraud ulent
Ġsell ers
id able
Ġkidn apping
I r
Ġutil ized
Ġgo alt
re ne
Ġbelie vers
lant ic
Ġcho pped
ĠF ans
Ġ19 42
En large
ĠL il
Ġindef initely
ba um
Ġreconst ruction
â ĺ
arr ison
it ating
im ation
ĠDar ren
Ġcur tain
Ġac ids
th y
Ġsuscept ible
Ġir rational
ĠT ier
ĠM int
Ġt in
Ġmel ting
Further more
Ġs ang
Th ird
Ġsurround ings
Ġh ats
Ġcease fire
a qu
Ġt apes
Ġmiser able
Scient ists
Ġlike wise
Top ics
Ġst acked
ĠAR M
ĠG ur
200 2
Ġur ine
Ġpop e
Ġmiss es
O ld
F oot
em ade
n umber
Ġobs ess
the med
rict ed
On line
ĠS V
j ah
ig ible
Ġpro claim
Ġcatast rophe
pl aces
h ig
Ġst oring
lud es
ĠMot ion
ĠV ers
Ġunique ly
mark ed
Ġremark ed
ĠAng ular
Ġlapt ops
âĢ¦ ]
R om
10 2
AN G
ĠRh ode
Ġchar ism
ĠC er
Ġspat ial
Ġcouncil s
ĠR S
Ġcom r
Ġhe ights
Ġex ile
Î µ
Ġinqu iries
Ġf aint
ĠDes ert
Ġ195 8
Ġcomment ator
Ġrec urring
qu arter
olester ol
Feb ruary
Ġ\ (
ĠGen esis
g ae
Ġj ugg
omet ric
fr ac
ĠPan el
Ġsur geon
Ġende av
a verage
Ġsuper natural
f ill
Ġshr inking
ĠT ah
ĠJ azeera
ĠD ucks
um bs
F ederal
ĠJohn s
T em
B rian
Ġdisp ers
Ġun pleasant
Ġdis like
Ġcr acks
st ill
ĠIll ust
o il
ig ators
Ġtub es
ĠBl ade
It em
ĠSchne ider
ĠProtest ant
ĠG iant
ĠAd mir
Ġan th
S u
ĠIm port
Ġlif elong
Ġdest ined
Ġauthor ization
ĠO g
A ri
ĠN ate
ex per
S ervice
Ġoper atives
ĠLike wise
ĠC E
ood y
ĠEx xon
W ater
Ch icago
B rad
Ġdisagree ment
ush ima
Ġdifferent ial
Ġvalid ation
D ist
Ġgal axies
Ġelig ibility
Ġwith hold
ul ators
Ġoff ender
ĠCh in
Ġch lor
ĠKind le
a unch
Ġcont enders
ĠWy oming
IN D
Ġovert urned
ĠC anyon
import ant
Ġreg ression
Ġphotograp hed
Ġmit igate
Mart in
Ġb unk
ĠG ri
pl er
Ġmilit ar
Ġmad ness
ĠAr s
Ġsurviv or
Ġpund its
Ġdesign ation
lin er
S n
Ġsc oop
G G
ĠW er
ĠSaf e
Ġ ï¿½
ĠAm sterdam
Ġweaken ed
ĠD owntown
Ġ195 6
B at
Ġsl ap
Ġrev olt
ir teen
ĠLi u
ĠCustom s
gl ass
C ore
ĠM illion
ĠK em
Ġintermedi ate
ĠFort une
im o
Ġded uct
B ur
ĠP ra
ĠPart icip
ĠF REE
Ġch ambers
L ight
Ġsh arks
Ġprop onents
h un
ĠH ugh
ĠGall up
d ue
PD F
ĠDav ies
Ġhon ors
en ment
Ġhint ed
Ġb ounds
Ġsh am
ĠN ear
ĠBar rett
Ġheter osexual
ĠB erry
pir acy
Ġinter ceptions
ĠBre aking
Ġsab ot
Ġpun ched
Ġprepar ations
qual ified
Ġpl ague
ĠTre vor
ĠEconom y
I B
ĠRest aur
ĠQuest ion
Ġto mb
Ġhero ic
ĠDian e
Ġgr abbing
Ġcan vas
ĠSh ia
Ġconver ting
c irc
art z
ĠRhod es
Ġwor s
ĠCl iff
Ġ10 3
OU ND
ĠV as
Ð ±
S orry
Ġfair y
ang ular
Ġunp aid
Ġworth while
sm all
Ġrehab ilitation
Ġhel pless
ĠE R
is ch
Cons ider
ĠS hen
A ud
ĠProv ince
ĠE ston
ĠThrough out
Ġclos et
ific ent
ot le
Ġcompos er
ott est
Ġcrus hing
ĠD iff
iv ism
it ures
P an
ĠP rest
Ġre op
L ondon
Ġex h
Ġt enth
" );
Ġdiscipl inary
Ġd ess
ump ed
ĠPir ate
Qu ery
ĠT ag
Ġfranch ises
Ġrum or
ol ation
ic us
per ing
Ġon set
Ġpo orer
ĠMe ga
ĠKit chen
ub s
Ġw olves
Ġg el
G ov
ĠP RE
c ule
Ġforg ive
og ene
Ġspec ulate
Ġlung s
N umber
ĠG em
ĠBay ern
l ate
Ġun authorized
Ġmar vel
ĠF X
ĠAm anda
ĠP ierce
Ġconting ent
ern ick
al ong
Ġlaw maker
Ġdraw ings
ĠAdd itional
Ġreject ing
s afe
ic idal
Ġab normal
4 50
ĠW orth
G ET
stand ard
de ath
ĠC oy
Ġprint s
ĠK i
Ġcoll ar
ĠNort heast
W E
Ġpedest rians
ĠIntern al
ave z
Ġaspir ations
Donald Trump
D ue
ĠColon el
- $
Ġzomb ies
ig ger
F ort
h ash
Ġsc outing
t ar
S k
J es
Ġsu ing
Ġland sc
Ġkid ney
Ġad vertisements
ĠD S
Ġret ention
id ad
Ex p
Ġabund ant
qu et
Ġedit ions
ra red
ĠÂ §
Ġsm oked
Ġgluc ose
ĠMy ers
Ġinfant ry
Ġfore see
Ġspl ash
Ġg ays
Ġv oy
Ġimag in
Ġcl one
ris y
Ġmin erals
10 3
Ġdi agram
ĠM ate
Ġhe x
Ġl bs
ĠP am
affe ine
Ġreb ound
Ġinstall ment
Ġsuprem acy
Ġfall out
Ġreconc iliation
ĠM oy
ĠH aven
Ġw inger
ĠT as
ĠHass an
ĠF ell
Ġz oo
ĠV ita
B er
Ġver ification
ĠRe becca
C ould
Ġtel escope
ĠGu inea
Ġplay ground
Ġchance llor
Ġalign ment
Ġtelev ised
im an
com b
ari us
Ġco erc
v s
ass ed
R ather
Ġres h
Ġcomp ilation
Ġeffic acy
Ġco herent
ĠD ance
F un
ĠL akes
Ġ195 4
P ER
Ġro gue
ĠStand ing
osp ace
Ġt sun
ĠW ine
Ġfant as
person al
ĠQu ant
iz a
Pr ice
Ġdraft ing
c ano
Israel i
Ġmortg ages
Ġexc uses
v able
Con nect
ĠR SS
Ġsupp ression
Ġcl usters
Ġcock tail
ĠAt las
Ġdis able
O pp
Ġsm ashed
f ocused
Ġsouth west
be y
Ġorganiz er
b ons
um en
Ġs aga
il ib
ĠP ine
ĠW it
Ġsc out
Ġst umbled
ri o
rat t
ĠTest ament
Ġstri ve
umn i
h ou
Ġapp les
ĠR ating
ĠV ir
r ice
Ġsuper star
Ġmon arch
ON D
ĠH av
m ag
Ġplag ued
Ġdictators hip
l ich
ĠM oses
P ath
d eter
J UST
ĠJ ak
m ove
ĠS ah
udd y
Ġdisag reed
ĠD iaz
Ġcirc ulated
Ġgl uten
Ġcountry side
Calif ornia
ĠCom plex
N P
Ġunanim ously
Ġch orus
Ġunders c
Ġpro claimed
Ġumb rella
Ġroll er
ĠGu jar
he avy
Ġaccus ation
ĠCoun sel
tr ade
Ġl ob
Ġpecul iar
ĠV ote
J ose
Ġmer ged
gr and
ĠRock y
Ġ10 6
Ġmanip ulated
ĠLe icester
W all
ĠPrem ium
J ournal
Ġdismiss al
Ġpersu aded
Ġstaff er
[...]
